{
  "version": "1.0",
  "truncation": null,
  "padding": null,
  "added_tokens": [
    {
      "id": 0,
      "content": "[PAD]",
      "single_word": false,
      "lstrip": false,
      "rstrip": false,
      "normalized": false,
      "special": true
    }
  ],
  "normalizer": {
    "type": "NFKC"
  },
  "pre_tokenizer": {
    "type": "Metaspace",
    "replacement": "▁",
    "add_prefix_space": true
  },
  "post_processor": null,
  "decoder": {
    "type": "Metaspace",
    "replacement": "▁",
    "add_prefix_space": true
  },
  "model": {
    "type": "BPE",
    "dropout": null,
    "unk_token": null,
    "continuing_subword_prefix": null,
    "end_of_word_suffix": null,
    "fuse_unk": false,
    "vocab": {
      "[PAD]": 0,
      "0": 1,
      "1": 2,
      "2": 3,
      "3": 4,
      "4": 5,
      "5": 6,
      "6": 7,
      "7": 8,
      "8": 9,
      "9": 10,
      ":": 11,
      "A": 12,
      "B": 13,
      "C": 14,
      "D": 15,
      "E": 16,
      "F": 17,
      "G": 18,
      "H": 19,
      "I": 20,
      "J": 21,
      "K": 22,
      "L": 23,
      "P": 24,
      "_": 25,
      "f": 26,
      "p": 27,
      "▁": 28,
      "0_": 29,
      "_0_": 30,
      "_5": 31,
      "_5_0_": 32,
      "_4": 33,
      "_6": 34,
      "_4_0_": 35,
      "00_": 36,
      "_6_0_": 37,
      "_3": 38,
      "00_:": 39,
      "_3_0_": 40,
      "▁L": 41,
      "▁C": 42,
      "▁D": 43,
      "▁E": 44,
      "▁F": 45,
      "▁G": 46,
      "▁H": 47,
      "▁I": 48,
      "▁J": 49,
      "▁K": 50,
      "▁A": 51,
      "▁B": 52,
      "_5_0_f": 53,
      "_1": 54,
      "_5_0_F": 55,
      "_5_0_P": 56,
      "_5_0_:": 57,
      "_4_0_f": 58,
      "_2": 59,
      "_4_0_F": 60,
      "_7": 61,
      "_4_0_P": 62,
      "_4_0_:": 63,
      "_6_0_f": 64,
      "_6_0_F": 65,
      "_6_0_P": 66,
      "_6_0_:": 67,
      "_7_0_": 68,
      "00_f": 69,
      "_5_1": 70,
      "00_F": 71,
      "00_P": 72,
      "_3_0_:": 73,
      "_3_0_f": 74,
      "_3_0_F": 75,
      "_6_1": 76,
      "_3_0_P": 77,
      "_4_1": 78,
      "_2_0_": 79,
      "_5_0_p": 80,
      "_4_0_p": 81,
      "_5_2": 82,
      "_8": 83,
      "00_p": 84,
      "_7_0_:": 85,
      "_4_2": 86,
      "_7_0_F": 87,
      "000_:": 88,
      "900_:": 89,
      "_6_2": 90,
      "200_:": 91,
      "_7_0_f": 92,
      "400_:": 93,
      "_3_1": 94,
      "_6_0_p": 95,
      "100_:": 96,
      "▁F_5_0_f": 97,
      "▁D_5_0_f": 98,
      "▁E_5_0_f": 99,
      "▁G_5_0_f": 100,
      "▁H_5_0_f": 101,
      "▁C_5_0_f": 102,
      "▁B_5_0_f": 103,
      "▁I_5_0_f": 104,
      "_7_0_P": 105,
      "▁A_5_0_f": 106,
      "▁J_5_0_f": 107,
      "▁L_4_0_f": 108,
      "▁K_5_0_f": 109,
      "▁K_4_0_f": 110,
      "▁L_5_0_f": 111,
      "▁F_5_0_F": 112,
      "_5_3": 113,
      "▁I_5_0_F": 114,
      "▁E_5_0_F": 115,
      "▁D_5_0_F": 116,
      "▁H_5_0_F": 117,
      "▁A_6_0_f": 118,
      "▁F_5_0_P": 119,
      "▁G_5_0_F": 120,
      "▁D_5_0_P": 121,
      "▁J_5_0_F": 122,
      "▁E_5_0_P": 123,
      "▁K_5_0_F": 124,
      "▁G_5_0_P": 125,
      "▁C_5_0_F": 126,
      "▁H_5_0_P": 127,
      "▁B_5_0_F": 128,
      "▁J_4_0_f": 129,
      "▁C_5_0_P": 130,
      "▁B_5_0_P": 131,
      "▁I_5_0_P": 132,
      "▁A_5_0_F": 133,
      "▁L_5_0_F": 134,
      "▁B_6_0_f": 135,
      "▁A_5_0_P": 136,
      "▁J_5_0_P": 137,
      "▁I_4_0_f": 138,
      "▁L_4_0_F": 139,
      "▁A_6_0_F": 140,
      "▁L_4_0_P": 141,
      "▁K_5_0_P": 142,
      "▁K_4_0_F": 143,
      "▁C_6_0_f": 144,
      "▁B_6_0_F": 145,
      "800_:": 146,
      "▁K_4_0_P": 147,
      "600_:": 148,
      "▁L_5_0_P": 149,
      "▁A_6_0_P": 150,
      "▁H_4_0_f": 151,
      "▁C_6_0_F": 152,
      "▁L_4_0_:": 153,
      "▁A_5_0_:": 154,
      "▁J_4_0_F": 155,
      "▁K_4_0_:": 156,
      "▁J_4_0_P": 157,
      "▁B_5_0_:": 158,
      "▁C_5_0_:": 159,
      "▁G_4_0_f": 160,
      "▁D_5_0_:": 161,
      "▁I_4_0_F": 162,
      "▁B_6_0_P": 163,
      "▁E_5_0_:": 164,
      "_3_0_p": 165,
      "▁I_4_0_P": 166,
      "▁F_5_0_:": 167,
      "▁D_6_0_f": 168,
      "▁J_4_0_:": 169,
      "300_:": 170,
      "▁G_5_0_:": 171,
      "_4_3": 172,
      "▁C_6_0_P": 173,
      "▁D_6_0_F": 174,
      "▁I_4_0_:": 175,
      "▁H_4_0_F": 176,
      "▁H_5_0_:": 177,
      "▁H_4_0_P": 178,
      "▁E_6_0_f": 179,
      "▁F_4_0_f": 180,
      "_2_0_:": 181,
      "▁E_6_0_F": 182,
      "▁H_4_0_:": 183,
      "▁G_4_0_F": 184,
      "▁I_5_0_:": 185,
      "▁G_4_0_P": 186,
      "▁J_5_0_:": 187,
      "▁G_4_0_:": 188,
      "▁D_6_0_P": 189,
      "▁E_4_0_f": 190,
      "▁F_6_0_f": 191,
      "▁F_6_0_F": 192,
      "▁K_5_0_:": 193,
      "▁F_4_0_F": 194,
      "▁F_4_0_:": 195,
      "▁F_4_0_P": 196,
      "▁E_6_0_P": 197,
      "▁D_4_0_f": 198,
      "▁L_5_0_:": 199,
      "▁E_4_0_:": 200,
      "_900_:": 201,
      "_800_:": 202,
      "500_:": 203,
      "_5_4": 204,
      "▁A_6_0_:": 205,
      "▁E_4_0_F": 206,
      "▁G_6_0_f": 207,
      "_2_0_F": 208,
      "▁G_6_0_F": 209,
      "▁E_4_0_P": 210,
      "▁D_4_0_:": 211,
      "_600_:": 212,
      "_6_3": 213,
      "▁F_6_0_P": 214,
      "_3_2": 215,
      "_700_:": 216,
      "_7_1": 217,
      "▁D_4_0_F": 218,
      "▁B_6_0_:": 219,
      "▁C_4_0_f": 220,
      "_9": 221,
      "▁D_4_0_P": 222,
      "▁H_6_0_f": 223,
      "▁H_6_0_F": 224,
      "▁C_6_0_:": 225,
      "▁C_4_0_:": 226,
      "▁B_4_0_f": 227,
      "▁G_6_0_P": 228,
      "_2_0_f": 229,
      "▁C_4_0_F": 230,
      "▁B_4_0_:": 231,
      "▁C_4_0_P": 232,
      "▁D_6_0_:": 233,
      "_5_5": 234,
      "_4_4": 235,
      "▁B_4_0_F": 236,
      "700_:": 237,
      "▁H_6_0_P": 238,
      "▁E_6_0_:": 239,
      "▁B_4_0_P": 240,
      "▁A_4_0_f": 241,
      "▁I_6_0_F": 242,
      "▁I_6_0_f": 243,
      "_5_100_:": 244,
      "▁A_4_0_:": 245,
      "▁F_6_0_:": 246,
      "▁L_3_0_f": 247,
      "▁A_4_0_F": 248,
      "▁J_6_0_F": 249,
      "▁J_6_0_f": 250,
      "▁L_3_0_:": 251,
      "▁G_6_0_:": 252,
      "▁A_4_0_P": 253,
      "_6_4": 254,
      "▁L_3_0_F": 255,
      "▁I_6_0_P": 256,
      "▁K_3_0_f": 257,
      "▁H_6_0_:": 258,
      "▁L_3_0_P": 259,
      "▁K_3_0_:": 260,
      "_4_5": 261,
      "▁J_6_0_P": 262,
      "▁K_3_0_F": 263,
      "_6_5": 264,
      "_2_0_P": 265,
      "▁I_6_0_:": 266,
      "▁J_3_0_:": 267,
      "_3_3": 268,
      "_4_100_:": 269,
      "▁K_6_0_F": 270,
      "▁J_3_0_f": 271,
      "▁K_3_0_P": 272,
      "▁K_6_0_f": 273,
      "_8_0_": 274,
      "▁I_3_0_:": 275,
      "▁J_6_0_:": 276,
      "▁J_3_0_F": 277,
      "▁I_3_0_f": 278,
      "▁J_3_0_P": 279,
      "_6_100_:": 280,
      "▁L_6_0_F": 281,
      "▁I_3_0_F": 282,
      "▁H_3_0_:": 283,
      "▁L_6_0_f": 284,
      "▁K_6_0_:": 285,
      "▁K_6_0_P": 286,
      "▁I_3_0_P": 287,
      "▁H_3_0_f": 288,
      "▁G_3_0_:": 289,
      "_5_200_:": 290,
      "▁L_6_0_:": 291,
      "▁K_5_1": 292,
      "▁J_5_1": 293,
      "▁I_5_1": 294,
      "▁H_3_0_F": 295,
      "▁L_5_1": 296,
      "▁A_6_1": 297,
      "_2_1": 298,
      "▁A_7_0_F": 299,
      "▁H_5_1": 300,
      "▁G_5_1": 301,
      "▁B_6_1": 302,
      "▁F_5_1": 303,
      "▁G_3_0_f": 304,
      "000_f": 305,
      "▁L_6_0_P": 306,
      "▁A_7_0_f": 307,
      "▁C_6_1": 308,
      "_5_6": 309,
      "▁E_5_1": 310,
      "▁F_3_0_:": 311,
      "▁D_5_1": 312,
      "▁G_3_0_F": 313,
      "▁A_7_0_:": 314,
      "▁H_3_0_P": 315,
      "▁C_5_1": 316,
      "▁D_6_1": 317,
      "_7_2": 318,
      "▁B_5_1": 319,
      "_3_4": 320,
      "▁A_5_1": 321,
      "▁E_6_1": 322,
      "▁E_3_0_:": 323,
      "▁L_4_1": 324,
      "_4_200_:": 325,
      "▁F_3_0_f": 326,
      "000_P": 327,
      "▁K_4_1": 328,
      "200_f": 329,
      "▁F_3_0_F": 330,
      "▁F_6_1": 331,
      "▁G_3_0_P": 332,
      "▁B_7_0_:": 333,
      "▁A_7_0_P": 334,
      "▁A_5_0_p": 335,
      "▁B_5_0_p": 336,
      "▁J_4_1": 337,
      "▁L_4_0_p": 338,
      "▁D_3_0_:": 339,
      "_4_6": 340,
      "▁E_3_0_f": 341,
      "▁C_5_0_p": 342,
      "▁E_3_0_F": 343,
      "▁D_5_0_p": 344,
      "▁I_4_1": 345,
      "_5_7": 346,
      "000_F": 347,
      "▁K_4_0_p": 348,
      "▁E_5_0_p": 349,
      "▁F_5_0_p": 350,
      "400_f": 351,
      "▁G_6_1": 352,
      "▁B_7_0_F": 353,
      "▁J_4_0_p": 354,
      "▁H_4_1": 355,
      "100_f": 356,
      "▁C_7_0_:": 357,
      "▁I_4_0_p": 358,
      "▁D_3_0_F": 359,
      "▁D_3_0_f": 360,
      "200_P": 361,
      "▁G_5_0_p": 362,
      "▁B_7_0_f": 363,
      "▁H_6_1": 364,
      "▁F_3_0_P": 365,
      "▁G_4_1": 366,
      "▁C_3_0_:": 367,
      "▁H_5_0_p": 368,
      "_3_5": 369,
      "_6_200_:": 370,
      "▁C_7_0_F": 371,
      "▁H_4_0_p": 372,
      "_5_900_:": 373,
      "_6_6": 374,
      "_5_800_:": 375,
      "400_P": 376,
      "▁F_4_1": 377,
      "▁G_4_0_p": 378,
      "▁I_5_0_p": 379,
      "_5_600_:": 380,
      "100_P": 381,
      "▁E_3_0_P": 382,
      "_7_0_p": 383,
      "200_F": 384,
      "▁C_7_0_f": 385,
      "_5_8": 386,
      "_5_9": 387,
      "_5_300_:": 388,
      "▁J_5_0_p": 389,
      "▁E_4_1": 390,
      "▁I_6_1": 391,
      "_5_700_:": 392,
      "▁D_7_0_:": 393,
      "▁B_3_0_:": 394,
      "_6_600_:": 395,
      "_3_100_:": 396,
      "▁C_3_0_F": 397,
      "▁F_4_0_p": 398,
      "_6_7": 399,
      "▁D_4_1": 400,
      "▁D_3_0_P": 401,
      "▁K_5_0_p": 402,
      "400_F": 403,
      "_4_7": 404,
      "▁C_3_0_f": 405,
      "▁B_7_0_P": 406,
      "_5_400_:": 407,
      "_6_800_:": 408,
      "100_F": 409,
      "▁J_6_1": 410,
      "300_f": 411,
      "_6_900_:": 412,
      "_6_700_:": 413,
      "▁E_4_0_p": 414,
      "600_f": 415,
      "800_f": 416,
      "_4_300_:": 417,
      "▁C_4_1": 418,
      "▁L_5_0_p": 419,
      "_5_500_:": 420,
      "▁B_3_0_F": 421,
      "▁E_7_0_:": 422,
      "_6_8": 423,
      "▁D_4_0_p": 424,
      "_4_900_:": 425,
      "▁C_7_0_P": 426,
      "_4_9": 427,
      "▁B_3_0_f": 428,
      "▁A_3_0_:": 429,
      "▁A_6_0_p": 430,
      "▁B_4_1": 431,
      "▁D_7_0_F": 432,
      "300_P": 433,
      "_8_0_:": 434,
      "_4_8": 435,
      "_5_2400_:": 436,
      "_4_400_:": 437,
      "▁K_6_1": 438,
      "_6_9": 439,
      "▁C_4_0_p": 440,
      "_2_2": 441,
      "600_P": 442,
      "_5_200_f": 443,
      "_5_2900_:": 444,
      "_4_800_:": 445,
      "800_P": 446,
      "_4_600_:": 447,
      "▁C_3_0_P": 448,
      "▁D_7_0_f": 449,
      "_6_500_:": 450,
      "▁B_6_0_p": 451,
      "▁A_4_1": 452,
      "▁A_6_2": 453,
      "▁A_3_0_F": 454,
      "900_f": 455,
      "_5_200_F": 456,
      "▁F_7_0_:": 457,
      "_4_700_:": 458,
      "800_F": 459,
      "▁B_4_0_p": 460,
      "▁L_2_0_:": 461,
      "600_F": 462,
      "500_f": 463,
      "▁L_3_1": 464,
      "300_F": 465,
      "▁E_7_0_F": 466,
      "_3_6": 467,
      "_2_0_p": 468,
      "▁B_6_2": 469,
      "▁A_3_0_f": 470,
      "▁C_6_0_p": 471,
      "_6_400_:": 472,
      "▁C_6_2": 473,
      "_7_3": 474,
      "_6_300_:": 475,
      "▁L_4_2": 476,
      "▁L_6_1": 477,
      "▁A_7_1": 478,
      "▁K_4_2": 479,
      "900_P": 480,
      "▁B_3_0_P": 481,
      "▁K_3_1": 482,
      "▁E_7_0_f": 483,
      "▁K_2_0_:": 484,
      "▁D_6_2": 485,
      "700_f": 486,
      "500_P": 487,
      "▁J_4_2": 488,
      "▁D_6_0_p": 489,
      "▁A_4_0_p": 490,
      "_4_500_:": 491,
      "▁L_2_0_F": 492,
      "▁L_3_0_p": 493,
      "▁I_4_2": 494,
      "000_p": 495,
      "▁E_6_2": 496,
      "_5_200_P": 497,
      "▁G_7_0_:": 498,
      "_3_200_:": 499,
      "▁J_3_1": 500,
      "▁D_7_0_P": 501,
      "_5_2000_:": 502,
      "▁F_7_0_F": 503,
      "▁E_6_0_p": 504,
      "▁H_4_2": 505,
      "▁L_2_0_f": 506,
      "200_p": 507,
      "900_F": 508,
      "▁K_2_0_F": 509,
      "▁F_6_2": 510,
      "▁G_4_2": 511,
      "▁K_3_0_p": 512,
      "▁I_3_1": 513,
      "700_F": 514,
      "▁A_3_0_P": 515,
      "▁J_2_0_:": 516,
      "500_F": 517,
      "400_p": 518,
      "_8_0_F": 519,
      "▁B_7_1": 520,
      "700_P": 521,
      "▁A_7": 522,
      "▁F_7_0_f": 523,
      "▁F_4_2": 524,
      "▁F_6_0_p": 525,
      "▁K_2_0_f": 526,
      "▁H_7_0_:": 527,
      "_2_3": 528,
      "▁G_6_2": 529,
      "▁J_3_0_p": 530,
      "▁E_7_0_P": 531,
      "▁H_3_1": 532,
      "▁E_4_2": 533,
      "▁I_2_0_:": 534,
      "100_p": 535,
      "_5_300_f": 536,
      "_3_7": 537,
      "_1_0_": 538,
      "▁J_2_0_F": 539,
      "_5_2100_:": 540,
      "▁H_6_2": 541,
      "▁C_7_1": 542,
      "▁G_3_1": 543,
      "▁D_4_2": 544,
      "▁G_6_0_p": 545,
      "_5_300_F": 546,
      "▁I_3_0_p": 547,
      "▁G_7_0_F": 548,
      "_3_300_:": 549,
      "▁I_2_0_F": 550,
      "▁B_7": 551,
      "▁J_2_0_f": 552,
      "▁C_4_2": 553,
      "▁F_3_1": 554,
      "▁H_6_0_p": 555,
      "▁L_2_0_P": 556,
      "▁B_4_2": 557,
      "_8_0_f": 558,
      "▁I_7_0_:": 559,
      "▁I_6_2": 560,
      "_3_9": 561,
      "▁E_3_1": 562,
      "▁G_7_0_f": 563,
      "_4_300_f": 564,
      "▁F_7_0_P": 565,
      "▁H_3_0_p": 566,
      "_3_8": 567,
      "▁I_2_0_f": 568,
      "_5_300_P": 569,
      "_6_300_F": 570,
      "▁C_7": 571,
      "▁H_2_0_:": 572,
      "300_p": 573,
      "_3_400_:": 574,
      "600_p": 575,
      "_3_900_:": 576,
      "_6_300_f": 577,
      "_4_300_F": 578,
      "▁H_7_0_F": 579,
      "▁D_3_1": 580,
      "▁K_2_0_P": 581,
      "▁A_4_2": 582,
      "▁J_6_2": 583,
      "▁D_7_1": 584,
      "▁G_3_0_p": 585,
      "▁I_6_0_p": 586,
      "800_p": 587,
      "_3_800_:": 588,
      "▁I_5_2": 589,
      "▁H_5_2": 590,
      "▁F_5_2": 591,
      "▁J_5_2": 592,
      "▁G_5_2": 593,
      "▁L_3_2": 594,
      "_3_700_:": 595,
      "▁D_5_2": 596,
      "▁K_5_2": 597,
      "▁E_5_2": 598,
      "_5_5800_:": 599,
      "_2_4": 600,
      "▁L_5_2": 601,
      "▁C_5_2": 602,
      "▁H_2_0_F": 603,
      "▁B_5_2": 604,
      "▁J_7_0_:": 605,
      "_5_400_f": 606,
      "_5_600_f": 607,
      "▁A_5_2": 608,
      "▁C_3_1": 609,
      "▁G_2_0_:": 610,
      "▁J_6_0_p": 611,
      "_5_3600_:": 612,
      "_3_600_:": 613,
      "▁H_7_0_f": 614,
      "▁K_3_2": 615,
      "▁D_7": 616,
      "▁F_3_0_p": 617,
      "▁E_7_1": 618,
      "900_p": 619,
      "▁K_6_2": 620,
      "_4_300_P": 621,
      "_5_500_f": 622,
      "▁J_2_0_P": 623,
      "▁B_3_1": 624,
      "500_p": 625,
      "▁E_3_0_p": 626,
      "_500_:": 627,
      "▁G_2_0_F": 628,
      "▁J_3_2": 629,
      "▁H_2_0_f": 630,
      "▁G_7_0_P": 631,
      "_6_300_P": 632,
      "_5_400_P": 633,
      "_5_600_P": 634,
      "_4_400_f": 635,
      "▁A_7_2": 636,
      "_3_500_:": 637,
      "_5_400_F": 638,
      "_5_4800_:": 639,
      "▁K_6_0_p": 640,
      "▁E_7": 641,
      "▁I_3_2": 642,
      "▁L_2_1": 643,
      "▁I_7_0_F": 644,
      "▁K_7_0_:": 645,
      "▁I_2_0_P": 646,
      "▁D_3_0_p": 647,
      "▁L_6_2": 648,
      "▁F_2_0_:": 649,
      "_5_700_f": 650,
      "_5_600_F": 651,
      "_5_500_P": 652,
      "_4_600_f": 653,
      "▁A_3_1": 654,
      "_6_400_f": 655,
      "_5_900_f": 656,
      "_4_500_f": 657,
      "700_p": 658,
      "▁F_7_1": 659,
      "_5_800_f": 660,
      "_6_600_f": 661,
      "▁G_2_0_f": 662,
      "_5_500_F": 663,
      "_4_3600_:": 664,
      "▁H_3_2": 665,
      "_4_400_P": 666,
      "▁K_2_1": 667,
      "_6_400_F": 668,
      "_4_400_F": 669,
      "▁L_6_0_p": 670,
      "_6_800_f": 671,
      "_6_500_f": 672,
      "▁C_3_0_p": 673,
      "▁H_7_0_P": 674,
      "▁F_7": 675,
      "_4_600_P": 676,
      "▁G_3_2": 677,
      "_6_700_f": 678,
      "▁I_7_0_f": 679,
      "▁J_7_0_F": 680,
      "▁H_5_100_:": 681,
      "▁G_5_100_:": 682,
      "▁F_5_100_:": 683,
      "_400_:": 684,
      "▁I_5_100_:": 685,
      "▁F_2_0_F": 686,
      "_8_0_P": 687,
      "_8_1": 688,
      "▁E_5_100_:": 689,
      "▁D_5_100_:": 690,
      "_4_500_P": 691,
      "▁J_5_100_:": 692,
      "_5_900_P": 693,
      "_5_700_P": 694,
      "▁B_7_2": 695,
      "▁C_5_100_:": 696,
      "▁B_5_100_:": 697,
      "_1_0_:": 698,
      "▁L_7_0_:": 699,
      "▁K_5_100_:": 700,
      "_5_700_F": 701,
      "_5_800_P": 702,
      "▁A_5_100_:": 703,
      "_6_900_f": 704,
      "▁L_5_100_:": 705,
      "▁L_4_100_:": 706,
      "_6_600_F": 707,
      "_5_3200_:": 708,
      "_6_400_P": 709,
      "_6_800_F": 710,
      "▁A_6_100_:": 711,
      "▁F_3_2": 712,
      "▁J_2_1": 713,
      "_2_5": 714,
      "▁A_6_3": 715,
      "_5_800_F": 716,
      "▁K_4_100_:": 717,
      "▁A_7_0_p": 718,
      "_6_500_F": 719,
      "_6_600_P": 720,
      "_3_300_F": 721,
      "_4_900_f": 722,
      "▁B_3_0_p": 723,
      "_4_500_F": 724,
      "_3_300_f": 725,
      "▁E_2_0_:": 726,
      "_4_4800_:": 727,
      "▁J_4_100_:": 728,
      "_4_600_F": 729,
      "▁B_6_100_:": 730,
      "_5_900_F": 731,
      "_4_800_f": 732,
      "▁C_7_2": 733,
      "▁L_4_3": 734,
      "_6_700_F": 735,
      "▁E_3_2": 736,
      "_4_700_f": 737,
      "_6_500_P": 738,
      "▁K_4_3": 739,
      "▁B_6_3": 740,
      "▁I_4_100_:": 741,
      "▁G_7_1": 742,
      "▁C_6_100_:": 743,
      "▁F_2_0_f": 744,
      "▁H_2_0_P": 745,
      "▁J_7_0_f": 746,
      "▁J_4_3": 747,
      "_6_800_P": 748,
      "▁I_4_3": 749,
      "▁G_5_3": 750,
      "▁I_2_1": 751,
      "▁C_6_3": 752,
      "▁H_5_3": 753,
      "▁F_5_3": 754,
      "▁D_5_3": 755,
      "▁E_5_3": 756,
      "▁B_5_3": 757,
      "_2_6": 758,
      "▁G_7": 759,
      "▁I_5_3": 760,
      "▁C_5_3": 761,
      "▁H_4_100_:": 762,
      "_6_700_P": 763,
      "▁A_5_3": 764,
      "_4_900_P": 765,
      "▁H_4_3": 766,
      "▁J_5_3": 767,
      "▁D_6_100_:": 768,
      "_6_900_F": 769,
      "▁D_3_2": 770,
      "▁A_3_0_p": 771,
      "▁K_5_3": 772,
      "▁G_4_3": 773,
      "▁G_4_100_:": 774,
      "_6_900_P": 775,
      "▁A_8_0_:": 776,
      "▁K_7_0_F": 777,
      "▁D_2_0_:": 778,
      "▁E_6_100_:": 779,
      "▁L_5_3": 780,
      "_4_800_P": 781,
      "▁F_4_3": 782,
      "▁D_6_3": 783,
      "▁F_4_100_:": 784,
      "_4_700_P": 785,
      "▁H_7_1": 786,
      "▁B_7_0_p": 787,
      "_6_5800_:": 788,
      "▁H_7": 789,
      "_3_300_P": 790,
      "▁E_4_3": 791,
      "▁F_6_100_:": 792,
      "▁G_2_0_P": 793,
      "▁E_6_3": 794,
      "▁C_3_2": 795,
      "▁E_4_100_:": 796,
      "_4_700_F": 797,
      "_3_600_f": 798,
      "_7_300_:": 799,
      "▁I_7_0_P": 800,
      "_3_400_f": 801,
      "▁D_4_3": 802,
      "_4_800_F": 803,
      "▁H_2_1": 804,
      "_5_4000_:": 805,
      "▁E_2_0_F": 806,
      "_4_5800_:": 807,
      "▁D_4_100_:": 808,
      "▁D_7_2": 809,
      "_4_900_F": 810,
      "_3_400_F": 811,
      "_6_4800_:": 812,
      "▁C_7_0_p": 813,
      "▁F_6_3": 814,
      "_2_200_:": 815,
      "▁G_6_100_:": 816,
      "▁C_4_3": 817,
      "▁K_7_0_f": 818,
      "▁B_3_2": 819,
      "▁L_7_0_F": 820,
      "▁C_4_100_:": 821,
      "▁B_8_0_:": 822,
      "_5_600_p": 823,
      "_3_600_P": 824,
      "_3_600_F": 825,
      "▁B_4_3": 826,
      "▁G_2_1": 827,
      "▁B_5_200_:": 828,
      "▁J_5_1200_:": 829,
      "▁C_2_0_:": 830,
      "▁L_3_3": 831,
      "▁H_6_100_:": 832,
      "▁I_5_1200_:": 833,
      "▁K_5_1200_:": 834,
      "▁C_5_200_:": 835,
      "▁D_5_200_:": 836,
      "▁L_5_1200_:": 837,
      "▁A_5_200_:": 838,
      "▁B_4_100_:": 839,
      "▁A_6_1200_:": 840,
      "▁F_5_200_:": 841,
      "_3_500_f": 842,
      "▁E_5_200_:": 843,
      "▁L_4_200_:": 844,
      "_2_7": 845,
      "1500_:": 846,
      "▁E_2_0_f": 847,
      "▁H_5_1200_:": 848,
      "▁G_5_200_:": 849,
      "▁K_4_200_:": 850,
      "▁H_5_200_:": 851,
      "▁E_7_2": 852,
      "▁G_5_1200_:": 853,
      "▁J_7_0_P": 854,
      "▁B_6_1200_:": 855,
      "▁F_5_1200_:": 856,
      "_5_400_p": 857,
      "▁I_5_200_:": 858,
      "▁G_6_3": 859,
      "▁A_4_3": 860,
      "▁J_5_200_:": 861,
      "▁I_7": 862,
      "▁C_6_1200_:": 863,
      "▁J_4_200_:": 864,
      "▁E_5_1200_:": 865,
      "▁A_3_2": 866,
      "▁F_2_0_P": 867,
      "_1_0_F": 868,
      "▁D_5_1200_:": 869,
      "▁L_2_0_p": 870,
      "▁I_4_200_:": 871,
      "_2_300_:": 872,
      "▁D_2_0_F": 873,
      "▁K_3_3": 874,
      "▁K_5_200_:": 875,
      "▁A_4_100_:": 876,
      "▁D_6_1200_:": 877,
      "▁C_5_1200_:": 878,
      "▁I_7_1": 879,
      "▁A_6_1000_:": 880,
      "▁B_6_1000_:": 881,
      "▁L_5_200_:": 882,
      "_3_400_P": 883,
      "_5_500_p": 884,
      "▁B_5_1200_:": 885,
      "▁C_6_1000_:": 886,
      "▁K_5_1000_:": 887,
      "▁L_5_1000_:": 888,
      "▁H_4_200_:": 889,
      "_4_600_p": 890,
      "▁A_6_200_:": 891,
      "▁E_6_1200_:": 892,
      "_4_400_p": 893,
      "▁L_3_100_:": 894,
      "_5_4100_:": 895,
      "▁I_6_100_:": 896,
      "▁A_8_0_F": 897,
      "▁J_5_1000_:": 898,
      "_3_500_F": 899,
      "▁D_6_1000_:": 900,
      "▁L_7_0_f": 901,
      "▁H_6_3": 902,
      "▁G_4_200_:": 903,
      "▁I_5_1000_:": 904,
      "▁A_5_1200_:": 905,
      "_7_300_F": 906,
      "▁E_6_1000_:": 907,
      "▁J_5_1400_:": 908,
      "▁K_5_1400_:": 909,
      "▁I_5_1400_:": 910,
      "▁B_6_200_:": 911,
      "▁L_5_1400_:": 912,
      "▁J_3_3": 913,
      "▁F_6_1200_:": 914,
      "▁L_4_1200_:": 915,
      "_3_500_P": 916,
      "▁C_8_0_:": 917,
      "▁A_6_1400_:": 918,
      "▁H_5_1400_:": 919,
      "▁C_6_200_:": 920,
      "▁L_2_2": 921,
      "▁H_5_1000_:": 922,
      "▁F_6_1000_:": 923,
      "_5_700_p": 924,
      "▁D_7_0_p": 925,
      "_4_500_p": 926,
      "▁G_5_1400_:": 927,
      "▁K_3_100_:": 928,
      "▁J_7": 929,
      "▁K_4_1200_:": 930,
      "▁J_6_100_:": 931,
      "▁A_6_4": 932,
      "▁G_5_1000_:": 933,
      "▁F_4_200_:": 934,
      "_4_4000_:": 935,
      "_5_7200_:": 936,
      "▁K_2_0_p": 937,
      "▁F_7_2": 938,
      "▁D_2_0_f": 939,
      "▁B_6_1400_:": 940,
      "▁F_5_1400_:": 941,
      "▁L_2": 942,
      "▁F_5_1000_:": 943,
      "▁I_3_3": 944,
      "_5_900_p": 945,
      "_4_4200_:": 946,
      "▁D_6_200_:": 947,
      "▁G_6_1000_:": 948,
      "▁C_6_1400_:": 949,
      "▁G_6_1200_:": 950,
      "▁E_5_1400_:": 951,
      "▁E_4_200_:": 952,
      "▁B_6_4": 953,
      "▁D_5_1400_:": 954,
      "_5_800_p": 955,
      "▁J_4_1200_:": 956,
      "▁D_5_1000_:": 957,
      "▁E_6_200_:": 958,
      "_5_4400_:": 959,
      "▁E_5_1000_:": 960,
      "▁J_7_1": 961,
      "▁H_6_1000_:": 962,
      "_3_700_f": 963,
      "_7_300_f": 964,
      "▁J_3_100_:": 965,
      "▁C_6_4": 966,
      "▁B_2_0_:": 967,
      "▁I_4_1200_:": 968,
      "▁H_6_1200_:": 969,
      "▁C_5_1000_:": 970,
      "▁F_2_1": 971,
      "▁A_8": 972,
      "_3_900_f": 973,
      "▁B_5_1000_:": 974,
      "▁D_4_200_:": 975,
      "▁D_6_1400_:": 976,
      "_4_5500_:": 977,
      "▁J_5_1100_:": 978,
      "▁C_5_1400_:": 979,
      "▁I_6_3": 980,
      "▁I_5_1100_:": 981,
      "▁K_2_2": 982,
      "_3_800_f": 983,
      "_2_400_:": 984,
      "▁A_5_1000_:": 985,
      "▁C_2_0_F": 986,
      "▁E_7_0_p": 987,
      "▁K_5_1100_:": 988,
      "▁F_6_200_:": 989,
      "▁H_5_1100_:": 990,
      "▁G_5_1100_:": 991,
      "▁B_5_1400_:": 992,
      "▁I_5_100_f": 993,
      "▁F_5_1100_:": 994,
      "▁H_5_100_f": 995,
      "▁J_5_100_f": 996,
      "▁L_5_1100_:": 997,
      "▁B_6_100_F": 998,
      "▁A_8_0_f": 999,
      "▁F_5_100_f": 1000,
      "▁G_5_100_f": 1001,
      "▁A_6_100_F": 1002,
      "▁K_5_100_f": 1003,
      "▁J_2_0_p": 1004,
      "▁L_5_100_F": 1005,
      "▁C_6_100_F": 1006,
      "_6_600_p": 1007,
      "▁K_5_100_F": 1008,
      "▁L_5_900_:": 1009,
      "▁L_4_1000_:": 1010,
      "▁A_6_900_:": 1011,
      "▁L_5_100_f": 1012,
      "▁K_2": 1013,
      "▁B_6_600_:": 1014,
      "▁H_4_1200_:": 1015,
      "▁K_5_900_:": 1016,
      "▁E_5_1100_:": 1017,
      "▁K_7_0_P": 1018,
      "▁K_5_800_:": 1019,
      "▁E_5_100_f": 1020,
      "▁A_6_1100_:": 1021,
      "▁A_6_100_f": 1022,
      "▁J_5_100_F": 1023,
      "▁A_6_600_:": 1024,
      "▁D_5_100_f": 1025,
      "▁I_3_100_:": 1026,
      "▁K_6_100_:": 1027,
      "▁H_3_3": 1028,
      "_4_900_p": 1029,
      "▁B_8_0_F": 1030,
      "▁E_6_1400_:": 1031,
      "▁L_5_800_:": 1032,
      "▁C_6_600_:": 1033,
      "▁I_5_100_F": 1034,
      "▁D_5_1100_:": 1035,
      "▁C_5_100_f": 1036,
      "▁L_5_600_:": 1037,
      "▁A_6_800_:": 1038,
      "▁I_5_900_:": 1039,
      "▁D_6_100_F": 1040,
      "▁J_5_900_:": 1041,
      "▁D_6_600_:": 1042,
      "▁B_6_100_f": 1043,
      "▁B_5_100_f": 1044,
      "▁J_5_800_:": 1045,
      "▁B_6_900_:": 1046,
      "▁I_5_800_:": 1047,
      "▁A_5_1400_:": 1048,
      "▁H_5_900_:": 1049,
      "▁C_5_1100_:": 1050,
      "▁H_5_100_F": 1051,
      "▁D_6_4": 1052,
      "▁K_4_1000_:": 1053,
      "▁K_5_600_:": 1054,
      "▁C_6_900_:": 1055,
      "▁A_6_700_:": 1056,
      "▁B_6_800_:": 1057,
      "_800_f": 1058,
      "_3_4800_:": 1059,
      "▁C_6_100_f": 1060,
      "▁G_5_900_:": 1061,
      "▁A_5_100_f": 1062,
      "▁L_5_700_:": 1063,
      "▁G_5_100_F": 1064,
      "▁B_5_1100_:": 1065,
      "▁E_6_100_F": 1066,
      "▁H_5_800_:": 1067,
      "▁E_6_600_:": 1068,
      "▁G_4_1200_:": 1069,
      "▁C_4_200_:": 1070,
      "▁B_6_1100_:": 1071,
      "▁B_6_700_:": 1072,
      "▁I_6_1000_:": 1073,
      "_3_700_P": 1074,
      "▁C_6_800_:": 1075,
      "▁K_7": 1076,
      "▁L_4_100_f": 1077,
      "▁K_5_700_:": 1078,
      "▁F_5_100_F": 1079,
      "▁I_5_600_:": 1080,
      "▁D_8_0_:": 1081,
      "▁J_5_600_:": 1082,
      "▁F_5_900_:": 1083,
      "▁H_5_600_:": 1084,
      "▁L_4_1400_:": 1085,
      "▁G_5_800_:": 1086,
      "▁G_3_3": 1087,
      "▁C_6_700_:": 1088,
      "▁G_6_200_:": 1089,
      "▁C_6_1100_:": 1090,
      "▁J_5_700_:": 1091,
      "▁J_6_3": 1092,
      "▁D_6_900_:": 1093,
      "▁D_6_100_f": 1094,
      "_3_900_P": 1095,
      "▁G_5_600_:": 1096,
      "▁B_4_200_:": 1097,
      "▁J_4_1000_:": 1098,
      "_4_800_p": 1099,
      "▁I_4_1000_:": 1100,
      "▁E_5_100_F": 1101,
      "▁F_5_800_:": 1102,
      "▁F_6_1400_:": 1103,
      "▁K_4_100_f": 1104,
      "▁F_6_100_F": 1105,
      "▁D_6_800_:": 1106,
      "▁F_6_600_:": 1107,
      "_800_F": 1108,
      "_5_4200_:": 1109,
      "▁B_5_300_:": 1110,
      "▁A_5_1100_:": 1111,
      "▁I_5_700_:": 1112,
      "▁I_6_1200_:": 1113,
      "_1_0_f": 1114,
      "▁D_6_700_:": 1115,
      "_4_4100_:": 1116,
      "▁C_5_300_:": 1117,
      "▁J_2_2": 1118,
      "▁A_5_300_:": 1119,
      "▁F_5_600_:": 1120,
      "▁D_5_100_F": 1121,
      "▁E_5_900_:": 1122,
      "▁D_5_900_:": 1123,
      "▁E_6_4": 1124,
      "▁K_4_1400_:": 1125,
      "▁E_6_900_:": 1126,
      "▁L_4_300_:": 1127,
      "▁B_5_900_:": 1128,
      "▁J_6_1000_:": 1129,
      "▁E_6_100_f": 1130,
      "▁D_5_300_:": 1131,
      "_4_700_p": 1132,
      "▁G_7_2": 1133,
      "▁K_4_300_:": 1134,
      "▁C_5_900_:": 1135,
      "▁H_3_100_:": 1136,
      "▁F_5_300_:": 1137,
      "▁E_6_800_:": 1138,
      "▁D_6_1100_:": 1139,
      "▁E_5_800_:": 1140,
      "▁E_5_300_:": 1141,
      "_6_700_p": 1142,
      "▁C_5_100_F": 1143,
      "▁I_2_0_p": 1144,
      "_3_800_P": 1145,
      "▁L_4_1100_:": 1146,
      "▁H_5_300_:": 1147,
      "▁A_5_900_:": 1148,
      "▁E_6_700_:": 1149,
      "▁D_5_800_:": 1150,
      "▁H_6_200_:": 1151,
      "▁E_2_0_P": 1152,
      "▁E_5_600_:": 1153,
      "▁G_5_300_:": 1154,
      "▁H_5_700_:": 1155,
      "▁D_5_600_:": 1156,
      "▁H_4_1000_:": 1157,
      "▁B_5_100_F": 1158,
      "▁J_4_100_f": 1159,
      "▁F_4_1200_:": 1160,
      "_5_5200_:": 1161,
      "▁J_2": 1162,
      "_3_700_F": 1163,
      "▁L_4_900_:": 1164,
      "▁J_4_300_:": 1165,
      "▁B_5_800_:": 1166,
      "▁G_5_700_:": 1167,
      "▁E_6_1100_:": 1168,
      "▁C_5_600_:": 1169,
      "▁I_5_300_:": 1170,
      "▁C_2_0_f": 1171,
      "▁C_5_800_:": 1172,
      "▁G_6_600_:": 1173,
      "▁G_6_100_F": 1174,
      "▁K_4_900_:": 1175,
      "▁F_6_800_:": 1176,
      "▁F_6_900_:": 1177,
      "▁I_4_100_f": 1178,
      "▁B_5_600_:": 1179,
      "▁I_4_300_:": 1180,
      "▁A_5_100_F": 1181,
      "▁L_6_100_:": 1182,
      "▁F_6_100_f": 1183,
      "▁G_4_1000_:": 1184,
      "▁J_5_300_:": 1185,
      "▁K_7_1": 1186,
      "▁K_4_1100_:": 1187,
      "▁F_6_700_:": 1188,
      "▁G_3_100_:": 1189,
      "▁J_6_1200_:": 1190,
      "▁J_4_1400_:": 1191,
      "▁F_3_3": 1192,
      "▁F_5_700_:": 1193,
      "▁L_4_100_F": 1194,
      "_5_4300_:": 1195,
      "_900_f": 1196,
      "▁A_5_600_:": 1197,
      "▁F_6_4": 1198,
      "▁B_8": 1199,
      "_3_900_F": 1200,
      "▁F_7_0_p": 1201,
      "▁E_2_1": 1202,
      "▁A_4_200_:": 1203,
      "▁K_5_300_:": 1204,
      "▁J_4_900_:": 1205,
      "▁A_5_800_:": 1206,
      "▁A_5_400_:": 1207,
      "▁L_4_600_:": 1208,
      "▁B_5_400_:": 1209,
      "▁D_5_400_:": 1210,
      "▁H_6_600_:": 1211,
      "▁C_8_0_F": 1212,
      "▁H_6_100_F": 1213,
      "_3_800_F": 1214,
      "▁C_5_400_:": 1215,
      "_6_900_p": 1216,
      "▁I_4_900_:": 1217,
      "▁I_4_1400_:": 1218,
      "_5_5000_:": 1219,
      "_6_800_p": 1220,
      "▁F_4_1000_:": 1221,
      "▁L_4_400_:": 1222,
      "▁H_4_300_:": 1223,
      "▁G_6_1400_:": 1224,
      "▁F_5_400_:": 1225,
      "▁K_4_600_:": 1226,
      "▁K_4_100_F": 1227,
      "▁E_4_1200_:": 1228,
      "▁F_6_1100_:": 1229,
      "▁F_5_100_P": 1230,
      "▁E_5_400_:": 1231,
      "▁A_2_0_:": 1232,
      "▁L_5_1300_:": 1233,
      "▁E_5_700_:": 1234,
      "▁I_2_2": 1235,
      "▁L_5_300_:": 1236,
      "▁D_5_100_P": 1237,
      "▁H_5_100_P": 1238,
      "▁H_5_400_:": 1239,
      "▁C_5_100_P": 1240,
      "▁L_3_200_:": 1241,
      "▁G_5_100_P": 1242,
      "▁E_5_100_P": 1243,
      "▁G_6_800_:": 1244,
      "▁K_5_1300_:": 1245,
      "▁B_5_100_P": 1246,
      "▁K_4_400_:": 1247,
      "▁G_5_400_:": 1248,
      "▁I_5_400_:": 1249,
      "▁L_4_800_:": 1250,
      "▁G_4_300_:": 1251,
      "▁J_5_400_:": 1252,
      "▁H_4_100_f": 1253,
      "▁K_5_400_:": 1254,
      "▁I_5_100_P": 1255,
      "▁A_6_300_:": 1256,
      "▁E_3_3": 1257,
      "▁J_4_1100_:": 1258,
      "▁A_6_1300_:": 1259,
      "▁J_5_1300_:": 1260,
      "▁A_5_100_P": 1261,
      "▁K_6_1000_:": 1262,
      "▁L_4_4": 1263,
      "_4_7200_:": 1264,
      "▁B_6_500_:": 1265,
      "▁H_4_900_:": 1266,
      "▁G_6_100_f": 1267,
      "▁E_4_1000_:": 1268,
      "▁G_6_700_:": 1269,
      "▁J_5_100_P": 1270,
      "▁A_6_500_:": 1271,
      "▁L_7": 1272,
      "▁D_5_700_:": 1273,
      "▁I_6_200_:": 1274,
      "▁G_6_900_:": 1275,
      "_6_500_p": 1276,
      "▁L_5_500_:": 1277,
      "▁I_2": 1278,
      "▁L_5_400_:": 1279,
      "_5_5500_:": 1280,
      "▁J_4_600_:": 1281,
      "▁L_7_0_P": 1282,
      "▁I_5_1300_:": 1283,
      "▁I_4_1100_:": 1284,
      "▁K_4_800_:": 1285,
      "▁L_4_100_P": 1286,
      "▁K_5_500_:": 1287,
      "▁B_8_0_f": 1288,
      "▁C_6_500_:": 1289,
      "▁D_4_1200_:": 1290,
      "▁J_4_400_:": 1291,
      "▁K_5_100_P": 1292,
      "▁A_6_400_:": 1293,
      "▁H_5_500_:": 1294,
      "▁K_4_4": 1295,
      "▁F_3_100_:": 1296,
      "▁G_4_100_f": 1297,
      "▁C_5_700_:": 1298,
      "▁I_5_500_:": 1299,
      "▁J_4_100_F": 1300,
      "▁I_4_400_:": 1301,
      "1300_:": 1302,
      "▁B_6_1300_:": 1303,
      "▁G_4_900_:": 1304,
      "▁J_5_500_:": 1305,
      "▁I_4_600_:": 1306,
      "▁L_5_100_P": 1307,
      "▁B_6_300_:": 1308,
      "▁K_4_100_P": 1309,
      "▁H_6_1400_:": 1310,
      "▁H_6_800_:": 1311,
      "▁G_5_500_:": 1312,
      "▁J_4_4": 1313,
      "▁H_4_1400_:": 1314,
      "_900_F": 1315,
      "▁K_6_3": 1316,
      "▁A_6_100_P": 1317,
      "▁H_6_700_:": 1318,
      "▁H_7_2": 1319,
      "▁C_6_1300_:": 1320,
      "▁B_6_400_:": 1321,
      "▁H_5_1300_:": 1322,
      "▁A_7_100_:": 1323,
      "▁F_4_300_:": 1324,
      "▁F_5_500_:": 1325,
      "_800_P": 1326,
      "▁B_5_700_:": 1327,
      "▁A_5_700_:": 1328,
      "▁D_6_500_:": 1329,
      "▁I_4_4": 1330,
      "▁J_4_800_:": 1331,
      "_3_5800_:": 1332,
      "▁H_6_100_f": 1333,
      "▁H_6_900_:": 1334,
      "▁I_4_100_F": 1335,
      "▁I_4_800_:": 1336,
      "▁C_6_300_:": 1337,
      "_8_0_p": 1338,
      "▁D_3_3": 1339,
      "▁L_4_700_:": 1340,
      "▁D_4_1000_:": 1341,
      "▁G_5_1300_:": 1342,
      "▁E_3_100_:": 1343,
      "▁G_6_1100_:": 1344,
      "▁E_8_0_:": 1345,
      "▁I_6_600_:": 1346,
      "▁H_5_2900_:": 1347,
      "▁F_4_900_:": 1348,
      "▁E_5_500_:": 1349,
      "_700_f": 1350,
      "▁I_5_2900_:": 1351,
      "▁I_6_100_F": 1352,
      "▁L_1_0_:": 1353,
      "▁G_4_1400_:": 1354,
      "_400_F": 1355,
      "▁C_6_400_:": 1356,
      "▁D_5_500_:": 1357,
      "▁B_6_100_P": 1358,
      "▁G_6_4": 1359,
      "▁E_6_500_:": 1360,
      "▁G_5_2900_:": 1361,
      "▁K_3_200_:": 1362,
      "▁H_4_400_:": 1363,
      "▁J_6_200_:": 1364,
      "▁J_5_2900_:": 1365,
      "▁H_4_1100_:": 1366,
      "▁K_4_700_:": 1367,
      "▁L_2_3": 1368,
      "▁C_5_500_:": 1369,
      "▁H_5_2400_:": 1370,
      "▁J_4_100_P": 1371,
      "_600_f": 1372,
      "▁B_2_0_F": 1373,
      "▁I_5_2400_:": 1374,
      "▁F_5_1300_:": 1375,
      "▁E_4_900_:": 1376,
      "▁G_5_2400_:": 1377,
      "▁G_4_400_:": 1378,
      "▁D_6_1300_:": 1379,
      "▁F_4_100_f": 1380,
      "_400_f": 1381,
      "▁C_6_100_P": 1382,
      "▁E_4_300_:": 1383,
      "▁K_5_1600_:": 1384,
      "▁K_6_1200_:": 1385,
      "▁J_5_2400_:": 1386,
      "▁L_6_1000_:": 1387,
      "▁I_5_1600_:": 1388,
      "_7_300_P": 1389,
      "▁J_5_1600_:": 1390,
      "▁L_5_1600_:": 1391,
      "▁H_4_800_:": 1392,
      "▁D_6_300_:": 1393,
      "▁H_4_4": 1394,
      "▁B_5_500_:": 1395,
      "▁J_4_700_:": 1396,
      "▁F_5_2400_:": 1397,
      "▁F_6_500_:": 1398,
      "▁I_4_100_P": 1399,
      "▁K_5_2400_:": 1400,
      "▁K_5_2900_:": 1401,
      "▁C_4_1200_:": 1402,
      "▁F_5_2900_:": 1403,
      "▁D_6_400_:": 1404,
      "▁G_4_1100_:": 1405,
      "▁H_6_1100_:": 1406,
      "▁H_5_1600_:": 1407,
      "▁A_5_500_:": 1408,
      "▁A_6_1600_:": 1409,
      "▁D_4_900_:": 1410,
      "▁G_4_800_:": 1411,
      "▁G_5_1600_:": 1412,
      "▁I_4_700_:": 1413,
      "▁I_6_800_:": 1414,
      "▁H_4_600_:": 1415,
      "4400_:": 1416,
      "▁J_6_600_:": 1417,
      "▁E_6_1300_:": 1418,
      "▁H_4_100_F": 1419,
      "▁F_5_1600_:": 1420,
      "▁J_6_100_F": 1421,
      "▁D_2_0_P": 1422,
      "▁E_5_1300_:": 1423,
      "▁L_4_500_:": 1424,
      "▁F_4_1400_:": 1425,
      "▁J_5_200_f": 1426,
      "▁D_6_100_P": 1427,
      "▁K_5_200_f": 1428,
      "▁I_5_200_f": 1429,
      "▁L_5_2400_:": 1430,
      "▁L_3_4": 1431,
      "▁H_2_0_p": 1432,
      "▁A_6_200_f": 1433,
      "▁G_4_4": 1434,
      "▁I_6_700_:": 1435,
      "▁D_5_2400_:": 1436,
      "_5_4500_:": 1437,
      "▁L_5_200_f": 1438,
      "▁C_4_1000_:": 1439,
      "▁E_4_100_f": 1440,
      "▁E_5_2400_:": 1441,
      "▁H_5_200_f": 1442,
      "▁D_3_100_:": 1443,
      "▁G_4_600_:": 1444,
      "▁K_4_500_:": 1445,
      "▁D_4_300_:": 1446,
      "▁L_5_2900_:": 1447,
      "▁E_5_2900_:": 1448,
      "▁F_5_200_f": 1449,
      "▁E_6_300_:": 1450,
      "▁H_6_4": 1451,
      "▁E_6_400_:": 1452,
      "▁D_5_1300_:": 1453,
      "▁B_6_1600_:": 1454,
      "▁D_5_1600_:": 1455,
      "▁E_5_1600_:": 1456,
      "▁J_3_200_:": 1457,
      "▁F_4_400_:": 1458,
      "▁A_6_2400_:": 1459,
      "▁A_6_200_F": 1460,
      "▁G_5_200_f": 1461,
      "▁H_4_700_:": 1462,
      "▁C_8": 1463,
      "▁D_2_1": 1464,
      "▁K_5_200_F": 1465,
      "▁G_4_100_F": 1466,
      "▁I_6_900_:": 1467,
      "▁L_5_200_F": 1468,
      "▁B_4_1200_:": 1469,
      "▁J_5_200_F": 1470,
      "▁L_7_1": 1471,
      "▁B_6_200_f": 1472,
      "▁G_6_500_:": 1473,
      "▁E_5_200_f": 1474,
      "▁D_5_200_f": 1475,
      "_900_P": 1476,
      "▁E_6_100_P": 1477,
      "▁I_6_100_f": 1478,
      "▁I_5_200_F": 1479,
      "▁H_2_2": 1480,
      "▁G_4_700_:": 1481,
      "▁H_4_100_P": 1482,
      "▁B_6_200_F": 1483,
      "▁C_5_2400_:": 1484,
      "▁J_6_800_:": 1485,
      "▁C_6_1600_:": 1486,
      "▁C_6_200_F": 1487,
      "▁C_6_200_f": 1488,
      "▁C_3_3": 1489,
      "_5_5400_:": 1490,
      "▁F_4_800_:": 1491,
      "▁A_6_2900_:": 1492,
      "▁B_5_2400_:": 1493,
      "▁H_5_200_F": 1494,
      "▁C_5_200_f": 1495,
      "▁J_4_500_:": 1496,
      "▁C_5_1600_:": 1497,
      "▁F_6_400_:": 1498,
      "▁B_5_200_f": 1499,
      "▁C_4_900_:": 1500,
      "_500_f": 1501,
      "▁E_4_400_:": 1502,
      "▁F_4_1100_:": 1503,
      "▁F_6_1300_:": 1504,
      "▁F_4_4": 1505,
      "▁D_5_2900_:": 1506,
      "▁D_4_100_f": 1507,
      "▁H_2": 1508,
      "_5_5100_:": 1509,
      "▁B_4_1000_:": 1510,
      "▁D_6_200_F": 1511,
      "▁F_5_200_F": 1512,
      "▁G_5_200_F": 1513,
      "▁E_4_1400_:": 1514,
      "▁B_2_0_f": 1515,
      "▁A_6_5": 1516,
      "▁C_5_1300_:": 1517,
      "▁J_6_700_:": 1518,
      "▁B_5_1600_:": 1519,
      "▁F_4_600_:": 1520,
      "▁E_4_800_:": 1521,
      "▁A_7_1000_:": 1522,
      "▁C_8_0_f": 1523,
      "▁F_4_700_:": 1524,
      "▁F_6_300_:": 1525,
      "▁H_6_500_:": 1526,
      "_4_5100_:": 1527,
      "▁G_4_100_P": 1528,
      "▁D_6_200_f": 1529,
      "▁A_5_200_f": 1530,
      "▁L_4_200_f": 1531,
      "▁I_6_1400_:": 1532,
      "▁K_6_200_:": 1533,
      "▁L_6_3": 1534,
      "▁I_4_500_:": 1535,
      "▁B_6_2400_:": 1536,
      "▁B_5_1300_:": 1537,
      "▁L_6_1200_:": 1538,
      "▁K_2_3": 1539,
      "▁A_5_2400_:": 1540,
      "_6_7200_:": 1541,
      "▁J_6_900_:": 1542,
      "_600_F": 1543,
      "_4_5200_:": 1544,
      "_700_F": 1545,
      "▁D_8_0_F": 1546,
      "▁K_3_4": 1547,
      "▁E_5_200_F": 1548,
      "▁C_4_300_:": 1549,
      "▁K_4_200_f": 1550,
      "▁D_6_1600_:": 1551,
      "▁D_5_200_F": 1552,
      "▁F_6_100_P": 1553,
      "_5_4600_:": 1554,
      "▁E_6_200_F": 1555,
      "▁F_4_100_F": 1556,
      "▁I_3_200_:": 1557,
      "_500_F": 1558,
      "▁C_6_2400_:": 1559,
      "▁B_4_900_:": 1560,
      "▁A_5_1600_:": 1561,
      "▁J_6_100_f": 1562,
      "▁I_6_1100_:": 1563,
      "▁E_4_700_:": 1564,
      "▁L_4_2400_:": 1565,
      "▁E_4_4": 1566,
      "▁E_4_1100_:": 1567,
      "▁E_6_200_f": 1568,
      "▁D_4_1400_:": 1569,
      "▁C_3_100_:": 1570,
      "▁C_5_200_F": 1571,
      "▁E_4_600_:": 1572,
      "▁K_6_100_F": 1573,
      "▁D_4_800_:": 1574,
      "▁B_4_300_:": 1575,
      "▁D_4_400_:": 1576,
      "▁B_5_200_F": 1577,
      "▁K_6_600_:": 1578,
      "▁B_6_5": 1579,
      "▁J_5_1800_:": 1580,
      "▁A_5_1300_:": 1581,
      "▁A_8_0_P": 1582,
      "▁B_7_100_:": 1583,
      "▁L_4_1600_:": 1584,
      "▁E_6_1600_:": 1585,
      "▁F_6_200_F": 1586,
      "▁K_5_1800_:": 1587,
      "▁F_8_0_:": 1588,
      "▁G_2_0_p": 1589,
      "▁G_6_400_:": 1590,
      "▁B_3_3": 1591,
      "▁G_7_0_p": 1592,
      "▁I_5_1800_:": 1593,
      "▁D_4_700_:": 1594,
      "▁K_4_2400_:": 1595,
      "▁L_5_1800_:": 1596,
      "_700_P": 1597,
      "▁A_5_200_F": 1598,
      "▁A_4_1000_:": 1599,
      "▁F_4_100_P": 1600,
      "▁J_4_200_f": 1601,
      "▁E_4_100_F": 1602,
      "▁L_4_200_F": 1603,
      "▁A_6_1800_:": 1604,
      "▁C_4_100_f": 1605,
      "▁G_6_1300_:": 1606,
      "_4_6400_:": 1607,
      "▁C_6_5": 1608,
      "▁C_5_2900_:": 1609,
      "▁G_6_300_:": 1610,
      "▁H_5_1800_:": 1611,
      "▁K_6_800_:": 1612,
      "▁K_4_1600_:": 1613,
      "▁D_4_1100_:": 1614,
      "▁F_6_200_f": 1615,
      "▁D_4_4": 1616,
      "▁L_4_1300_:": 1617,
      "▁J_6_1400_:": 1618,
      "▁L_3_300_:": 1619,
      "▁B_6_2900_:": 1620,
      "▁A_4_1200_:": 1621,
      "▁K_6_700_:": 1622,
      "_600_P": 1623,
      "▁K_4_200_F": 1624,
      "▁I_4_200_f": 1625,
      "▁G_2_2": 1626,
      "▁G_5_1800_:": 1627,
      "▁B_4_100_f": 1628,
      "▁B_5_2900_:": 1629,
      "▁G_6_100_P": 1630,
      "▁C_4_1400_:": 1631,
      "▁H_6_400_:": 1632,
      "▁H_4_500_:": 1633,
      "▁J_6_1100_:": 1634,
      "▁C_4_800_:": 1635,
      "▁K_4_1300_:": 1636,
      "▁C_4_400_:": 1637,
      "▁A_4_300_:": 1638,
      "▁D_4_600_:": 1639,
      "▁B_6_1800_:": 1640,
      "▁D_6_2400_:": 1641,
      "▁A_8_1": 1642,
      "▁I_6_500_:": 1643,
      "▁J_3_4": 1644,
      "▁G_6_200_F": 1645,
      "▁L_3_1000_:": 1646,
      "_3_500_p": 1647,
      "▁I_7_2": 1648,
      "▁D_4_100_F": 1649,
      "▁C_6_2900_:": 1650,
      "▁F_5_4": 1651,
      "▁F_5_1800_:": 1652,
      "▁A_4_900_:": 1653,
      "▁I_6_4": 1654,
      "▁L_6_200_:": 1655,
      "▁G_2": 1656,
      "▁H_3_200_:": 1657,
      "▁E_4_100_P": 1658,
      "_3_600_p": 1659,
      "▁F_6_1600_:": 1660,
      "▁C_4_700_:": 1661,
      "▁G_4_500_:": 1662,
      "▁H_6_1300_:": 1663,
      "▁D_5_4": 1664,
      "▁E_5_4": 1665,
      "▁J_4_2400_:": 1666,
      "▁K_5_2000_:": 1667,
      "▁J_4_1600_:": 1668,
      "0000_:": 1669,
      "▁C_6_1800_:": 1670,
      "▁A_7_1200_:": 1671,
      "▁B_5_4": 1672,
      "▁G_5_4": 1673,
      "▁I_5_2000_:": 1674,
      "▁J_5_2000_:": 1675,
      "▁L_5_2000_:": 1676,
      "▁C_5_4": 1677,
      "▁H_6_300_:": 1678,
      "▁B_3_100_:": 1679,
      "▁H_5_4": 1680,
      "▁J_2_3": 1681,
      "▁B_4_700_:": 1682,
      "▁E_5_1800_:": 1683,
      "▁J_4_200_F": 1684,
      "▁H_4_200_f": 1685,
      "▁B_4_1400_:": 1686,
      "▁G_6_200_f": 1687,
      "▁I_4_1600_:": 1688,
      "▁K_6_900_:": 1689,
      "▁B_4_400_:": 1690,
      "▁A_5_4": 1691,
      "▁A_7_3": 1692,
      "_5_9600_:": 1693,
      "▁C_4_4": 1694,
      "▁J_5_200_P": 1695,
      "▁I_4_2400_:": 1696,
      "▁I_5_200_P": 1697,
      "▁E_6_2400_:": 1698,
      "▁H_6_200_F": 1699,
      "▁H_6_100_P": 1700,
      "▁J_4_1300_:": 1701,
      "▁J_6_500_:": 1702,
      "▁L_6_100_F": 1703,
      "_400_P": 1704,
      "▁B_4_800_:": 1705,
      "▁H_5_200_P": 1706,
      "▁I_4_200_F": 1707,
      "▁A_6_2000_:": 1708,
      "▁B_7_1000_:": 1709,
      "▁D_6_5": 1710,
      "▁F_5_200_P": 1711,
      "▁L_3_1200_:": 1712,
      "▁C_7_100_:": 1713,
      "▁I_5_4": 1714,
      "▁K_6_100_f": 1715,
      "▁K_5_200_P": 1716,
      "▁L_6_800_:": 1717,
      "▁L_6_600_:": 1718,
      "▁G_5_200_P": 1719,
      "▁L_5_200_P": 1720,
      "▁G_4_200_f": 1721,
      "▁A_6_200_P": 1722,
      "▁C_4_1100_:": 1723,
      "▁I_4_1300_:": 1724,
      "▁H_5_2000_:": 1725,
      "▁K_3_300_:": 1726,
      "▁J_5_4": 1727,
      "▁A_4_100_f": 1728,
      "▁K_5_4": 1729,
      "▁E_5_200_P": 1730,
      "▁D_8": 1731,
      "▁D_5_1800_:": 1732,
      "▁D_5_200_P": 1733,
      "▁D_4_100_P": 1734,
      "▁C_4_600_:": 1735,
      "▁G_3_200_:": 1736,
      "▁I_3_4": 1737,
      "▁F_4_500_:": 1738,
      "▁L_3_900_:": 1739,
      "▁G_5_2000_:": 1740,
      "▁K_3_1000_:": 1741,
      "▁G_5_1500_:": 1742,
      "▁F_5_1500_:": 1743,
      "▁B_6_200_P": 1744,
      "▁C_5_200_P": 1745,
      "▁I_6_400_:": 1746,
      "▁B_5_200_P": 1747,
      "▁H_6_200_f": 1748,
      "▁H_7_0_p": 1749,
      "▁E_8_0_F": 1750,
      "▁I_5_1500_:": 1751,
      "▁A_5_2900_:": 1752,
      "▁C_4_100_F": 1753,
      "▁D_5_1500_:": 1754,
      "▁F_5_2000_:": 1755,
      "▁E_5_1500_:": 1756,
      "▁H_5_1500_:": 1757,
      "▁D_6_1800_:": 1758,
      "▁L_6_700_:": 1759,
      "▁L_5_4": 1760,
      "▁K_5_1500_:": 1761,
      "▁L_3_100_f": 1762,
      "▁C_6_200_P": 1763,
      "▁G_6_1600_:": 1764,
      "▁H_4_1600_:": 1765,
      "▁A_3_3": 1766,
      "▁H_4_200_F": 1767,
      "▁B_4_4": 1768,
      "▁J_5_1500_:": 1769,
      "▁L_4_200_P": 1770,
      "▁A_5_200_P": 1771,
      "▁J_6_4": 1772,
      "▁B_6_2000_:": 1773,
      "▁A_4_800_:": 1774,
      "▁B_4_1100_:": 1775,
      "▁C_5_1800_:": 1776,
      "▁B_4_600_:": 1777,
      "▁B_4_100_F": 1778,
      "▁C_2_1": 1779,
      "▁A_7_200_:": 1780,
      "▁E_6_5": 1781,
      "▁L_5_1500_:": 1782,
      "▁C_5_1500_:": 1783,
      "▁K_4_200_P": 1784,
      "▁F_4_200_f": 1785,
      "_500_P": 1786,
      "▁G_4_200_F": 1787,
      "▁A_6_1500_:": 1788,
      "▁B_5_1800_:": 1789,
      "▁E_4_500_:": 1790,
      "▁K_6_1100_:": 1791,
      "▁H_4_1300_:": 1792,
      "▁B_5_1500_:": 1793,
      "▁K_3_1200_:": 1794,
      "▁C_6_2000_:": 1795,
      "▁H_4_2400_:": 1796,
      "▁C_2_0_P": 1797,
      "▁F_2_0_p": 1798,
      "▁E_5_2000_:": 1799,
      "▁A_4_400_:": 1800,
      "▁F_6_2400_:": 1801,
      "▁I_2_3": 1802,
      "▁D_5_2000_:": 1803,
      "▁A_7_100_F": 1804,
      "▁L_4_2900_:": 1805,
      "▁D_6_200_P": 1806,
      "▁A_3_100_:": 1807,
      "_2_400_F": 1808,
      "▁I_6_200_F": 1809,
      "▁A_4_700_:": 1810,
      "▁G_4_1600_:": 1811,
      "▁J_3_300_:": 1812,
      "▁A_5_1800_:": 1813,
      "▁D_6_2900_:": 1814,
      "▁K_3_900_:": 1815,
      "▁K_1_0_:": 1816,
      "▁I_6_300_:": 1817,
      "▁A_2_0_F": 1818,
      "▁F_3_200_:": 1819,
      "▁A_7_600_:": 1820,
      "▁A_7_800_:": 1821,
      "▁L_3_800_:": 1822,
      "▁L_3_400_:": 1823,
      "▁B_6_1500_:": 1824,
      "▁C_7_1000_:": 1825,
      "▁E_6_1800_:": 1826,
      "▁K_6_1400_:": 1827,
      "▁D_8_0_f": 1828,
      "▁G_4_1300_:": 1829,
      "▁A_5_1500_:": 1830,
      "▁J_6_400_:": 1831,
      "▁J_3_1000_:": 1832,
      "▁G_4_2400_:": 1833,
      "▁C_4_100_P": 1834,
      "_3_700_p": 1835,
      "▁L_6_900_:": 1836,
      "▁H_6_1600_:": 1837,
      "▁E_4_200_f": 1838,
      "▁L_4_1800_:": 1839,
      "▁L_4_5": 1840,
      "▁D_4_500_:": 1841,
      "▁A_4_1400_:": 1842,
      "▁I_6_100_P": 1843,
      "_3_5500_:": 1844,
      "▁A_7_700_:": 1845,
      "▁K_3_100_f": 1846,
      "▁L_4_1500_:": 1847,
      "▁J_4_200_P": 1848,
      "▁K_6_500_:": 1849,
      "▁F_4_200_F": 1850,
      "▁L_6_100_f": 1851,
      "▁L_3_1400_:": 1852,
      "_4_6000_:": 1853,
      "▁E_6_200_P": 1854,
      "▁K_4_1800_:": 1855,
      "▁I_6_1300_:": 1856,
      "▁B_4_100_P": 1857,
      "▁J_7_2": 1858,
      "▁H_3_4": 1859,
      "▁C_6_1500_:": 1860,
      "_2_600_f": 1861,
      "▁F_5_1900_:": 1862,
      "▁C_5_2000_:": 1863,
      "▁G_8_0_:": 1864,
      "▁K_4_5": 1865,
      "▁G_5_1900_:": 1866,
      "▁K_5_1700_:": 1867,
      "▁I_6_200_f": 1868,
      "▁L_3_700_:": 1869,
      "▁L_5_1700_:": 1870,
      "▁B_5_2000_:": 1871,
      "▁E_3_200_:": 1872,
      "▁D_6_2000_:": 1873,
      "▁F_4_1300_:": 1874,
      "▁I_4_200_P": 1875,
      "▁F_6_5": 1876,
      "▁A_4_100_F": 1877,
      "▁K_4_1500_:": 1878,
      "▁A_4_4": 1879,
      "▁A_6_1700_:": 1880,
      "▁D_5_1900_:": 1881,
      "▁A_4_600_:": 1882,
      "▁H_5_1900_:": 1883,
      "▁J_6_200_F": 1884,
      "▁C_5_1900_:": 1885,
      "▁E_5_1900_:": 1886,
      "▁I_5_1900_:": 1887,
      "▁F_4_1600_:": 1888,
      "▁E_4_200_F": 1889,
      "▁I_3_300_:": 1890,
      "▁J_3_1200_:": 1891,
      "▁D_4_200_f": 1892,
      "▁B_8_0_P": 1893,
      "▁J_5_1700_:": 1894,
      "▁K_4_2900_:": 1895,
      "▁A_4_1100_:": 1896,
      "▁J_6_300_:": 1897,
      "▁J_5_1900_:": 1898,
      "▁I_5_1700_:": 1899,
      "▁K_3_400_:": 1900,
      "▁B_5_1900_:": 1901,
      "▁J_4_1800_:": 1902,
      "▁J_4_5": 1903,
      "▁J_3_900_:": 1904,
      "▁A_5_1900_:": 1905,
      "_4_9600_:": 1906,
      "▁F_6_200_P": 1907,
      "▁L_3_100_F": 1908,
      "▁F_4_2400_:": 1909,
      "▁I_4_5": 1910,
      "▁E_6_2000_:": 1911,
      "▁B_6_1700_:": 1912,
      "▁K_5_1900_:": 1913,
      "▁F_6_1800_:": 1914,
      "▁H_5_2100_:": 1915,
      "▁I_5_2100_:": 1916,
      "▁B_7_1200_:": 1917,
      "▁D_6_1500_:": 1918,
      "▁K_3_800_:": 1919,
      "▁J_4_1500_:": 1920,
      "▁J_5_2100_:": 1921,
      "▁J_6_100_P": 1922,
      "▁G_3_4": 1923,
      "▁E_4_1300_:": 1924,
      "▁L_3_600_:": 1925,
      "▁C_6_1700_:": 1926,
      "_2_600_F": 1927,
      "▁L_4_1900_:": 1928,
      "▁E_6_2900_:": 1929,
      "▁L_1": 1930,
      "▁I_3_1000_:": 1931,
      "▁I_4_1800_:": 1932,
      "▁G_5_2100_:": 1933,
      "▁B_8_1": 1934,
      "▁H_4_5": 1935,
      "▁A_5_2000_:": 1936,
      "▁H_4_200_P": 1937,
      "▁K_5_2100_:": 1938,
      "_5_5300_:": 1939,
      "▁J_3_100_f": 1940,
      "▁B_5_300_f": 1941,
      "_2_400_f": 1942,
      "▁K_3_700_:": 1943,
      "▁D_4_200_F": 1944,
      "▁F_5_300_f": 1945,
      "▁C_4_500_:": 1946,
      "▁L_6_1100_:": 1947,
      "▁F_5_2100_:": 1948,
      "▁K_4_1900_:": 1949,
      "▁J_6_200_f": 1950,
      "▁D_3_200_:": 1951,
      "▁G_4_5": 1952,
      "▁J_5_300_f": 1953,
      "▁J_6_1300_:": 1954,
      "▁A_4_100_P": 1955,
      "▁F_2": 1956,
      "_3_900_p": 1957,
      "▁D_5_300_f": 1958,
      "▁H_5_1700_:": 1959,
      "▁C_5_300_f": 1960,
      "▁G_6_2400_:": 1961,
      "▁I_5_300_f": 1962,
      "▁G_5_1700_:": 1963,
      "▁L_5_1900_:": 1964,
      "▁E_5_300_f": 1965,
      "▁K_3_1400_:": 1966,
      "▁D_4_1300_:": 1967,
      "▁A_5_300_f": 1968,
      "▁E_4_1600_:": 1969,
      "▁H_5_300_f": 1970,
      "▁I_4_1500_:": 1971,
      "▁A_7_100_f": 1972,
      "▁A_7_900_:": 1973,
      "▁E_6_1500_:": 1974,
      "▁L_5_300_f": 1975,
      "▁G_5_300_f": 1976,
      "▁L_3_1100_:": 1977,
      "▁J_4_1900_:": 1978,
      "▁A_6_300_f": 1979,
      "▁K_5_300_f": 1980,
      "▁K_6_400_:": 1981,
      "▁L_3_100_P": 1982,
      "▁L_4_300_f": 1983,
      "_3_800_p": 1984,
      "▁D_7_100_:": 1985,
      "▁E_4_2400_:": 1986,
      "▁B_7_800_:": 1987,
      "▁G_4_200_P": 1988,
      "▁B_4_500_:": 1989,
      "▁L_5_2100_:": 1990,
      "_5_6400_:": 1991,
      "▁L_6_500_:": 1992,
      "▁K_4_300_f": 1993,
      "▁K_6_4": 1994,
      "▁J_3_400_:": 1995,
      "▁I_3_1200_:": 1996,
      "▁C_4_200_f": 1997,
      "_3_7200_:": 1998,
      "▁F_8_0_F": 1999,
      "▁A_6_1900_:": 2000,
      "▁I_6_1600_:": 2001,
      "▁B_7_3": 2002,
      "▁A_6_300_F": 2003,
      "▁L_2_100_:": 2004,
      "▁E_8": 2005,
      "▁J_3_800_:": 2006,
      "▁L_5_300_F": 2007,
      "▁B_7_200_:": 2008,
      "▁J_5_300_F": 2009,
      "▁G_6_200_P": 2010,
      "▁E_5_2100_:": 2011,
      "▁K_3_100_F": 2012,
      "▁I_5_300_F": 2013,
      "▁A_6_2100_:": 2014,
      "▁L_4_2000_:": 2015,
      "_2_600_P": 2016,
      "▁B_6_300_f": 2017,
      "▁B_4_200_f": 2018,
      "▁F_4_5": 2019,
      "▁H_3_300_:": 2020,
      "▁J_4_2900_:": 2021,
      "▁F_5_1700_:": 2022,
      "▁I_3_900_:": 2023,
      "▁K_5_300_F": 2024,
      "▁L_6_1400_:": 2025,
      "▁I_4_1900_:": 2026,
      "▁H_4_1800_:": 2027,
      "▁D_6_1700_:": 2028,
      "▁B_6_300_F": 2029,
      "▁K_3_600_:": 2030,
      "▁C_6_300_f": 2031,
      "▁C_6_300_F": 2032,
      "▁F_5_300_F": 2033,
      "▁H_5_300_F": 2034,
      "▁I_3_100_f": 2035,
      "▁D_5_2100_:": 2036,
      "▁K_6_200_F": 2037,
      "▁L_1_0_F": 2038,
      "▁H_6_2400_:": 2039,
      "▁C_4_1300_:": 2040,
      "▁C_4_200_F": 2041,
      "▁F_6_2000_:": 2042,
      "▁K_4_2000_:": 2043,
      "▁B_7_700_:": 2044,
      "▁B_4_200_F": 2045,
      "▁F_6_1500_:": 2046,
      "▁G_6_5": 2047
    },
    "merges": [
      "0 _",
      "_ 0_",
      "_ 5",
      "_5 _0_",
      "_ 4",
      "_ 6",
      "_4 _0_",
      "0 0_",
      "_6 _0_",
      "_ 3",
      "00_ :",
      "_3 _0_",
      "▁ L",
      "▁ C",
      "▁ D",
      "▁ E",
      "▁ F",
      "▁ G",
      "▁ H",
      "▁ I",
      "▁ J",
      "▁ K",
      "▁ A",
      "▁ B",
      "_5_0_ f",
      "_ 1",
      "_5_0_ F",
      "_5_0_ P",
      "_5_0_ :",
      "_4_0_ f",
      "_ 2",
      "_4_0_ F",
      "_ 7",
      "_4_0_ P",
      "_4_0_ :",
      "_6_0_ f",
      "_6_0_ F",
      "_6_0_ P",
      "_6_0_ :",
      "_7 _0_",
      "00_ f",
      "_5 _1",
      "00_ F",
      "00_ P",
      "_3_0_ :",
      "_3_0_ f",
      "_3_0_ F",
      "_6 _1",
      "_3_0_ P",
      "_4 _1",
      "_2 _0_",
      "_5_0_ p",
      "_4_0_ p",
      "_5 _2",
      "_ 8",
      "00_ p",
      "_7_0_ :",
      "_4 _2",
      "_7_0_ F",
      "0 00_:",
      "9 00_:",
      "_6 _2",
      "2 00_:",
      "_7_0_ f",
      "4 00_:",
      "_3 _1",
      "_6_0_ p",
      "1 00_:",
      "▁F _5_0_f",
      "▁D _5_0_f",
      "▁E _5_0_f",
      "▁G _5_0_f",
      "▁H _5_0_f",
      "▁C _5_0_f",
      "▁B _5_0_f",
      "▁I _5_0_f",
      "_7_0_ P",
      "▁A _5_0_f",
      "▁J _5_0_f",
      "▁L _4_0_f",
      "▁K _5_0_f",
      "▁K _4_0_f",
      "▁L _5_0_f",
      "▁F _5_0_F",
      "_5 _3",
      "▁I _5_0_F",
      "▁E _5_0_F",
      "▁D _5_0_F",
      "▁H _5_0_F",
      "▁A _6_0_f",
      "▁F _5_0_P",
      "▁G _5_0_F",
      "▁D _5_0_P",
      "▁J _5_0_F",
      "▁E _5_0_P",
      "▁K _5_0_F",
      "▁G _5_0_P",
      "▁C _5_0_F",
      "▁H _5_0_P",
      "▁B _5_0_F",
      "▁J _4_0_f",
      "▁C _5_0_P",
      "▁B _5_0_P",
      "▁I _5_0_P",
      "▁A _5_0_F",
      "▁L _5_0_F",
      "▁B _6_0_f",
      "▁A _5_0_P",
      "▁J _5_0_P",
      "▁I _4_0_f",
      "▁L _4_0_F",
      "▁A _6_0_F",
      "▁L _4_0_P",
      "▁K _5_0_P",
      "▁K _4_0_F",
      "▁C _6_0_f",
      "▁B _6_0_F",
      "8 00_:",
      "▁K _4_0_P",
      "6 00_:",
      "▁L _5_0_P",
      "▁A _6_0_P",
      "▁H _4_0_f",
      "▁C _6_0_F",
      "▁L _4_0_:",
      "▁A _5_0_:",
      "▁J _4_0_F",
      "▁K _4_0_:",
      "▁J _4_0_P",
      "▁B _5_0_:",
      "▁C _5_0_:",
      "▁G _4_0_f",
      "▁D _5_0_:",
      "▁I _4_0_F",
      "▁B _6_0_P",
      "▁E _5_0_:",
      "_3_0_ p",
      "▁I _4_0_P",
      "▁F _5_0_:",
      "▁D _6_0_f",
      "▁J _4_0_:",
      "3 00_:",
      "▁G _5_0_:",
      "_4 _3",
      "▁C _6_0_P",
      "▁D _6_0_F",
      "▁I _4_0_:",
      "▁H _4_0_F",
      "▁H _5_0_:",
      "▁H _4_0_P",
      "▁E _6_0_f",
      "▁F _4_0_f",
      "_2_0_ :",
      "▁E _6_0_F",
      "▁H _4_0_:",
      "▁G _4_0_F",
      "▁I _5_0_:",
      "▁G _4_0_P",
      "▁J _5_0_:",
      "▁G _4_0_:",
      "▁D _6_0_P",
      "▁E _4_0_f",
      "▁F _6_0_f",
      "▁F _6_0_F",
      "▁K _5_0_:",
      "▁F _4_0_F",
      "▁F _4_0_:",
      "▁F _4_0_P",
      "▁E _6_0_P",
      "▁D _4_0_f",
      "▁L _5_0_:",
      "▁E _4_0_:",
      "_ 900_:",
      "_8 00_:",
      "5 00_:",
      "_5 _4",
      "▁A _6_0_:",
      "▁E _4_0_F",
      "▁G _6_0_f",
      "_2_0_ F",
      "▁G _6_0_F",
      "▁E _4_0_P",
      "▁D _4_0_:",
      "_6 00_:",
      "_6 _3",
      "▁F _6_0_P",
      "_3 _2",
      "_7 00_:",
      "_7 _1",
      "▁D _4_0_F",
      "▁B _6_0_:",
      "▁C _4_0_f",
      "_ 9",
      "▁D _4_0_P",
      "▁H _6_0_f",
      "▁H _6_0_F",
      "▁C _6_0_:",
      "▁C _4_0_:",
      "▁B _4_0_f",
      "▁G _6_0_P",
      "_2_0_ f",
      "▁C _4_0_F",
      "▁B _4_0_:",
      "▁C _4_0_P",
      "▁D _6_0_:",
      "_5 _5",
      "_4 _4",
      "▁B _4_0_F",
      "7 00_:",
      "▁H _6_0_P",
      "▁E _6_0_:",
      "▁B _4_0_P",
      "▁A _4_0_f",
      "▁I _6_0_F",
      "▁I _6_0_f",
      "_5_1 00_:",
      "▁A _4_0_:",
      "▁F _6_0_:",
      "▁L _3_0_f",
      "▁A _4_0_F",
      "▁J _6_0_F",
      "▁J _6_0_f",
      "▁L _3_0_:",
      "▁G _6_0_:",
      "▁A _4_0_P",
      "_6 _4",
      "▁L _3_0_F",
      "▁I _6_0_P",
      "▁K _3_0_f",
      "▁H _6_0_:",
      "▁L _3_0_P",
      "▁K _3_0_:",
      "_4 _5",
      "▁J _6_0_P",
      "▁K _3_0_F",
      "_6 _5",
      "_2_0_ P",
      "▁I _6_0_:",
      "▁J _3_0_:",
      "_3 _3",
      "_4_1 00_:",
      "▁K _6_0_F",
      "▁J _3_0_f",
      "▁K _3_0_P",
      "▁K _6_0_f",
      "_8 _0_",
      "▁I _3_0_:",
      "▁J _6_0_:",
      "▁J _3_0_F",
      "▁I _3_0_f",
      "▁J _3_0_P",
      "_6_1 00_:",
      "▁L _6_0_F",
      "▁I _3_0_F",
      "▁H _3_0_:",
      "▁L _6_0_f",
      "▁K _6_0_:",
      "▁K _6_0_P",
      "▁I _3_0_P",
      "▁H _3_0_f",
      "▁G _3_0_:",
      "_5_2 00_:",
      "▁L _6_0_:",
      "▁K _5_1",
      "▁J _5_1",
      "▁I _5_1",
      "▁H _3_0_F",
      "▁L _5_1",
      "▁A _6_1",
      "_2 _1",
      "▁A _7_0_F",
      "▁H _5_1",
      "▁G _5_1",
      "▁B _6_1",
      "▁F _5_1",
      "▁G _3_0_f",
      "0 00_f",
      "▁L _6_0_P",
      "▁A _7_0_f",
      "▁C _6_1",
      "_5 _6",
      "▁E _5_1",
      "▁F _3_0_:",
      "▁D _5_1",
      "▁G _3_0_F",
      "▁A _7_0_:",
      "▁H _3_0_P",
      "▁C _5_1",
      "▁D _6_1",
      "_7 _2",
      "▁B _5_1",
      "_3 _4",
      "▁A _5_1",
      "▁E _6_1",
      "▁E _3_0_:",
      "▁L _4_1",
      "_4_2 00_:",
      "▁F _3_0_f",
      "0 00_P",
      "▁K _4_1",
      "2 00_f",
      "▁F _3_0_F",
      "▁F _6_1",
      "▁G _3_0_P",
      "▁B _7_0_:",
      "▁A _7_0_P",
      "▁A _5_0_p",
      "▁B _5_0_p",
      "▁J _4_1",
      "▁L _4_0_p",
      "▁D _3_0_:",
      "_4 _6",
      "▁E _3_0_f",
      "▁C _5_0_p",
      "▁E _3_0_F",
      "▁D _5_0_p",
      "▁I _4_1",
      "_5 _7",
      "0 00_F",
      "▁K _4_0_p",
      "▁E _5_0_p",
      "▁F _5_0_p",
      "4 00_f",
      "▁G _6_1",
      "▁B _7_0_F",
      "▁J _4_0_p",
      "▁H _4_1",
      "1 00_f",
      "▁C _7_0_:",
      "▁I _4_0_p",
      "▁D _3_0_F",
      "▁D _3_0_f",
      "2 00_P",
      "▁G _5_0_p",
      "▁B _7_0_f",
      "▁H _6_1",
      "▁F _3_0_P",
      "▁G _4_1",
      "▁C _3_0_:",
      "▁H _5_0_p",
      "_3 _5",
      "_6_2 00_:",
      "▁C _7_0_F",
      "▁H _4_0_p",
      "_5 _900_:",
      "_6 _6",
      "_5 _800_:",
      "4 00_P",
      "▁F _4_1",
      "▁G _4_0_p",
      "▁I _5_0_p",
      "_5 _600_:",
      "1 00_P",
      "▁E _3_0_P",
      "_7_0_ p",
      "2 00_F",
      "▁C _7_0_f",
      "_5 _8",
      "_5 _9",
      "_5_3 00_:",
      "▁J _5_0_p",
      "▁E _4_1",
      "▁I _6_1",
      "_5 _700_:",
      "▁D _7_0_:",
      "▁B _3_0_:",
      "_6 _600_:",
      "_3_1 00_:",
      "▁C _3_0_F",
      "▁F _4_0_p",
      "_6 _7",
      "▁D _4_1",
      "▁D _3_0_P",
      "▁K _5_0_p",
      "4 00_F",
      "_4 _7",
      "▁C _3_0_f",
      "▁B _7_0_P",
      "_5_4 00_:",
      "_6 _800_:",
      "1 00_F",
      "▁J _6_1",
      "3 00_f",
      "_6 _900_:",
      "_6 _700_:",
      "▁E _4_0_p",
      "6 00_f",
      "8 00_f",
      "_4_3 00_:",
      "▁C _4_1",
      "▁L _5_0_p",
      "_5_5 00_:",
      "▁B _3_0_F",
      "▁E _7_0_:",
      "_6 _8",
      "▁D _4_0_p",
      "_4 _900_:",
      "▁C _7_0_P",
      "_4 _9",
      "▁B _3_0_f",
      "▁A _3_0_:",
      "▁A _6_0_p",
      "▁B _4_1",
      "▁D _7_0_F",
      "3 00_P",
      "_8_0_ :",
      "_4 _8",
      "_5_2 400_:",
      "_4_4 00_:",
      "▁K _6_1",
      "_6 _9",
      "▁C _4_0_p",
      "_2 _2",
      "6 00_P",
      "_5_2 00_f",
      "_5_2 900_:",
      "_4 _800_:",
      "8 00_P",
      "_4 _600_:",
      "▁C _3_0_P",
      "▁D _7_0_f",
      "_6_5 00_:",
      "▁B _6_0_p",
      "▁A _4_1",
      "▁A _6_2",
      "▁A _3_0_F",
      "9 00_f",
      "_5_2 00_F",
      "▁F _7_0_:",
      "_4 _700_:",
      "8 00_F",
      "▁B _4_0_p",
      "▁L _2_0_:",
      "6 00_F",
      "5 00_f",
      "▁L _3_1",
      "3 00_F",
      "▁E _7_0_F",
      "_3 _6",
      "_2_0_ p",
      "▁B _6_2",
      "▁A _3_0_f",
      "▁C _6_0_p",
      "_6_4 00_:",
      "▁C _6_2",
      "_7 _3",
      "_6_3 00_:",
      "▁L _4_2",
      "▁L _6_1",
      "▁A _7_1",
      "▁K _4_2",
      "9 00_P",
      "▁B _3_0_P",
      "▁K _3_1",
      "▁E _7_0_f",
      "▁K _2_0_:",
      "▁D _6_2",
      "7 00_f",
      "5 00_P",
      "▁J _4_2",
      "▁D _6_0_p",
      "▁A _4_0_p",
      "_4_5 00_:",
      "▁L _2_0_F",
      "▁L _3_0_p",
      "▁I _4_2",
      "0 00_p",
      "▁E _6_2",
      "_5_2 00_P",
      "▁G _7_0_:",
      "_3_2 00_:",
      "▁J _3_1",
      "▁D _7_0_P",
      "_5_2 000_:",
      "▁F _7_0_F",
      "▁E _6_0_p",
      "▁H _4_2",
      "▁L _2_0_f",
      "2 00_p",
      "9 00_F",
      "▁K _2_0_F",
      "▁F _6_2",
      "▁G _4_2",
      "▁K _3_0_p",
      "▁I _3_1",
      "7 00_F",
      "▁A _3_0_P",
      "▁J _2_0_:",
      "5 00_F",
      "4 00_p",
      "_8_0_ F",
      "▁B _7_1",
      "7 00_P",
      "▁A _7",
      "▁F _7_0_f",
      "▁F _4_2",
      "▁F _6_0_p",
      "▁K _2_0_f",
      "▁H _7_0_:",
      "_2 _3",
      "▁G _6_2",
      "▁J _3_0_p",
      "▁E _7_0_P",
      "▁H _3_1",
      "▁E _4_2",
      "▁I _2_0_:",
      "1 00_p",
      "_5_3 00_f",
      "_3 _7",
      "_1 _0_",
      "▁J _2_0_F",
      "_5_2 100_:",
      "▁H _6_2",
      "▁C _7_1",
      "▁G _3_1",
      "▁D _4_2",
      "▁G _6_0_p",
      "_5_3 00_F",
      "▁I _3_0_p",
      "▁G _7_0_F",
      "_3_3 00_:",
      "▁I _2_0_F",
      "▁B _7",
      "▁J _2_0_f",
      "▁C _4_2",
      "▁F _3_1",
      "▁H _6_0_p",
      "▁L _2_0_P",
      "▁B _4_2",
      "_8_0_ f",
      "▁I _7_0_:",
      "▁I _6_2",
      "_3 _9",
      "▁E _3_1",
      "▁G _7_0_f",
      "_4_3 00_f",
      "▁F _7_0_P",
      "▁H _3_0_p",
      "_3 _8",
      "▁I _2_0_f",
      "_5_3 00_P",
      "_6_3 00_F",
      "▁C _7",
      "▁H _2_0_:",
      "3 00_p",
      "_3_4 00_:",
      "6 00_p",
      "_3 _900_:",
      "_6_3 00_f",
      "_4_3 00_F",
      "▁H _7_0_F",
      "▁D _3_1",
      "▁K _2_0_P",
      "▁A _4_2",
      "▁J _6_2",
      "▁D _7_1",
      "▁G _3_0_p",
      "▁I _6_0_p",
      "8 00_p",
      "_3 _800_:",
      "▁I _5_2",
      "▁H _5_2",
      "▁F _5_2",
      "▁J _5_2",
      "▁G _5_2",
      "▁L _3_2",
      "_3 _700_:",
      "▁D _5_2",
      "▁K _5_2",
      "▁E _5_2",
      "_5_5 800_:",
      "_2 _4",
      "▁L _5_2",
      "▁C _5_2",
      "▁H _2_0_F",
      "▁B _5_2",
      "▁J _7_0_:",
      "_5_4 00_f",
      "_5_6 00_f",
      "▁A _5_2",
      "▁C _3_1",
      "▁G _2_0_:",
      "▁J _6_0_p",
      "_5_3 600_:",
      "_3 _600_:",
      "▁H _7_0_f",
      "▁K _3_2",
      "▁D _7",
      "▁F _3_0_p",
      "▁E _7_1",
      "9 00_p",
      "▁K _6_2",
      "_4_3 00_P",
      "_5_5 00_f",
      "▁J _2_0_P",
      "▁B _3_1",
      "5 00_p",
      "▁E _3_0_p",
      "_5 00_:",
      "▁G _2_0_F",
      "▁J _3_2",
      "▁H _2_0_f",
      "▁G _7_0_P",
      "_6_3 00_P",
      "_5_4 00_P",
      "_5_6 00_P",
      "_4_4 00_f",
      "▁A _7_2",
      "_3_5 00_:",
      "_5_4 00_F",
      "_5_4 800_:",
      "▁K _6_0_p",
      "▁E _7",
      "▁I _3_2",
      "▁L _2_1",
      "▁I _7_0_F",
      "▁K _7_0_:",
      "▁I _2_0_P",
      "▁D _3_0_p",
      "▁L _6_2",
      "▁F _2_0_:",
      "_5_7 00_f",
      "_5_6 00_F",
      "_5_5 00_P",
      "_4_6 00_f",
      "▁A _3_1",
      "_6_4 00_f",
      "_5_9 00_f",
      "_4_5 00_f",
      "7 00_p",
      "▁F _7_1",
      "_5_8 00_f",
      "_6_6 00_f",
      "▁G _2_0_f",
      "_5_5 00_F",
      "_4_3 600_:",
      "▁H _3_2",
      "_4_4 00_P",
      "▁K _2_1",
      "_6_4 00_F",
      "_4_4 00_F",
      "▁L _6_0_p",
      "_6_8 00_f",
      "_6_5 00_f",
      "▁C _3_0_p",
      "▁H _7_0_P",
      "▁F _7",
      "_4_6 00_P",
      "▁G _3_2",
      "_6_7 00_f",
      "▁I _7_0_f",
      "▁J _7_0_F",
      "▁H _5_100_:",
      "▁G _5_100_:",
      "▁F _5_100_:",
      "_4 00_:",
      "▁I _5_100_:",
      "▁F _2_0_F",
      "_8_0_ P",
      "_8 _1",
      "▁E _5_100_:",
      "▁D _5_100_:",
      "_4_5 00_P",
      "▁J _5_100_:",
      "_5_9 00_P",
      "_5_7 00_P",
      "▁B _7_2",
      "▁C _5_100_:",
      "▁B _5_100_:",
      "_1_0_ :",
      "▁L _7_0_:",
      "▁K _5_100_:",
      "_5_7 00_F",
      "_5_8 00_P",
      "▁A _5_100_:",
      "_6_9 00_f",
      "▁L _5_100_:",
      "▁L _4_100_:",
      "_6_6 00_F",
      "_5_3 200_:",
      "_6_4 00_P",
      "_6_8 00_F",
      "▁A _6_100_:",
      "▁F _3_2",
      "▁J _2_1",
      "_2 _5",
      "▁A _6_3",
      "_5_8 00_F",
      "▁K _4_100_:",
      "▁A _7_0_p",
      "_6_5 00_F",
      "_6_6 00_P",
      "_3_3 00_F",
      "_4_9 00_f",
      "▁B _3_0_p",
      "_4_5 00_F",
      "_3_3 00_f",
      "▁E _2_0_:",
      "_4_4 800_:",
      "▁J _4_100_:",
      "_4_6 00_F",
      "▁B _6_100_:",
      "_5_9 00_F",
      "_4_8 00_f",
      "▁C _7_2",
      "▁L _4_3",
      "_6_7 00_F",
      "▁E _3_2",
      "_4_7 00_f",
      "_6_5 00_P",
      "▁K _4_3",
      "▁B _6_3",
      "▁I _4_100_:",
      "▁G _7_1",
      "▁C _6_100_:",
      "▁F _2_0_f",
      "▁H _2_0_P",
      "▁J _7_0_f",
      "▁J _4_3",
      "_6_8 00_P",
      "▁I _4_3",
      "▁G _5_3",
      "▁I _2_1",
      "▁C _6_3",
      "▁H _5_3",
      "▁F _5_3",
      "▁D _5_3",
      "▁E _5_3",
      "▁B _5_3",
      "_2 _6",
      "▁G _7",
      "▁I _5_3",
      "▁C _5_3",
      "▁H _4_100_:",
      "_6_7 00_P",
      "▁A _5_3",
      "_4_9 00_P",
      "▁H _4_3",
      "▁J _5_3",
      "▁D _6_100_:",
      "_6_9 00_F",
      "▁D _3_2",
      "▁A _3_0_p",
      "▁K _5_3",
      "▁G _4_3",
      "▁G _4_100_:",
      "_6_9 00_P",
      "▁A _8_0_:",
      "▁K _7_0_F",
      "▁D _2_0_:",
      "▁E _6_100_:",
      "▁L _5_3",
      "_4_8 00_P",
      "▁F _4_3",
      "▁D _6_3",
      "▁F _4_100_:",
      "_4_7 00_P",
      "▁H _7_1",
      "▁B _7_0_p",
      "_6_5 800_:",
      "▁H _7",
      "_3_3 00_P",
      "▁E _4_3",
      "▁F _6_100_:",
      "▁G _2_0_P",
      "▁E _6_3",
      "▁C _3_2",
      "▁E _4_100_:",
      "_4_7 00_F",
      "_3_6 00_f",
      "_7_3 00_:",
      "▁I _7_0_P",
      "_3_4 00_f",
      "▁D _4_3",
      "_4_8 00_F",
      "▁H _2_1",
      "_5_4 000_:",
      "▁E _2_0_F",
      "_4_5 800_:",
      "▁D _4_100_:",
      "▁D _7_2",
      "_4_9 00_F",
      "_3_4 00_F",
      "_6_4 800_:",
      "▁C _7_0_p",
      "▁F _6_3",
      "_2_2 00_:",
      "▁G _6_100_:",
      "▁C _4_3",
      "▁K _7_0_f",
      "▁B _3_2",
      "▁L _7_0_F",
      "▁C _4_100_:",
      "▁B _8_0_:",
      "_5_6 00_p",
      "_3_6 00_P",
      "_3_6 00_F",
      "▁B _4_3",
      "▁G _2_1",
      "▁B _5_200_:",
      "▁J_5_1 200_:",
      "▁C _2_0_:",
      "▁L _3_3",
      "▁H _6_100_:",
      "▁I_5_1 200_:",
      "▁K_5_1 200_:",
      "▁C _5_200_:",
      "▁D _5_200_:",
      "▁L_5_1 200_:",
      "▁A _5_200_:",
      "▁B _4_100_:",
      "▁A_6_1 200_:",
      "▁F _5_200_:",
      "_3_5 00_f",
      "▁E _5_200_:",
      "▁L _4_200_:",
      "_2 _7",
      "1 500_:",
      "▁E _2_0_f",
      "▁H_5_1 200_:",
      "▁G _5_200_:",
      "▁K _4_200_:",
      "▁H _5_200_:",
      "▁E _7_2",
      "▁G_5_1 200_:",
      "▁J _7_0_P",
      "▁B_6_1 200_:",
      "▁F_5_1 200_:",
      "_5_4 00_p",
      "▁I _5_200_:",
      "▁G _6_3",
      "▁A _4_3",
      "▁J _5_200_:",
      "▁I _7",
      "▁C_6_1 200_:",
      "▁J _4_200_:",
      "▁E_5_1 200_:",
      "▁A _3_2",
      "▁F _2_0_P",
      "_1_0_ F",
      "▁D_5_1 200_:",
      "▁L _2_0_p",
      "▁I _4_200_:",
      "_2_3 00_:",
      "▁D _2_0_F",
      "▁K _3_3",
      "▁K _5_200_:",
      "▁A _4_100_:",
      "▁D_6_1 200_:",
      "▁C_5_1 200_:",
      "▁I _7_1",
      "▁A_6_1 000_:",
      "▁B_6_1 000_:",
      "▁L _5_200_:",
      "_3_4 00_P",
      "_5_5 00_p",
      "▁B_5_1 200_:",
      "▁C_6_1 000_:",
      "▁K_5_1 000_:",
      "▁L_5_1 000_:",
      "▁H _4_200_:",
      "_4_6 00_p",
      "▁A _6_200_:",
      "▁E_6_1 200_:",
      "_4_4 00_p",
      "▁L _3_100_:",
      "_5_4 100_:",
      "▁I _6_100_:",
      "▁A _8_0_F",
      "▁J_5_1 000_:",
      "_3_5 00_F",
      "▁D_6_1 000_:",
      "▁L _7_0_f",
      "▁H _6_3",
      "▁G _4_200_:",
      "▁I_5_1 000_:",
      "▁A_5_1 200_:",
      "_7_3 00_F",
      "▁E_6_1 000_:",
      "▁J_5_1 400_:",
      "▁K_5_1 400_:",
      "▁I_5_1 400_:",
      "▁B _6_200_:",
      "▁L_5_1 400_:",
      "▁J _3_3",
      "▁F_6_1 200_:",
      "▁L_4_1 200_:",
      "_3_5 00_P",
      "▁C _8_0_:",
      "▁A_6_1 400_:",
      "▁H_5_1 400_:",
      "▁C _6_200_:",
      "▁L _2_2",
      "▁H_5_1 000_:",
      "▁F_6_1 000_:",
      "_5_7 00_p",
      "▁D _7_0_p",
      "_4_5 00_p",
      "▁G_5_1 400_:",
      "▁K _3_100_:",
      "▁J _7",
      "▁K_4_1 200_:",
      "▁J _6_100_:",
      "▁A _6_4",
      "▁G_5_1 000_:",
      "▁F _4_200_:",
      "_4_4 000_:",
      "_5_7 200_:",
      "▁K _2_0_p",
      "▁F _7_2",
      "▁D _2_0_f",
      "▁B_6_1 400_:",
      "▁F_5_1 400_:",
      "▁L _2",
      "▁F_5_1 000_:",
      "▁I _3_3",
      "_5_9 00_p",
      "_4_4 200_:",
      "▁D _6_200_:",
      "▁G_6_1 000_:",
      "▁C_6_1 400_:",
      "▁G_6_1 200_:",
      "▁E_5_1 400_:",
      "▁E _4_200_:",
      "▁B _6_4",
      "▁D_5_1 400_:",
      "_5_8 00_p",
      "▁J_4_1 200_:",
      "▁D_5_1 000_:",
      "▁E _6_200_:",
      "_5_4 400_:",
      "▁E_5_1 000_:",
      "▁J _7_1",
      "▁H_6_1 000_:",
      "_3_7 00_f",
      "_7_3 00_f",
      "▁J _3_100_:",
      "▁C _6_4",
      "▁B _2_0_:",
      "▁I_4_1 200_:",
      "▁H_6_1 200_:",
      "▁C_5_1 000_:",
      "▁F _2_1",
      "▁A _8",
      "_3_9 00_f",
      "▁B_5_1 000_:",
      "▁D _4_200_:",
      "▁D_6_1 400_:",
      "_4_5 500_:",
      "▁J_5_1 100_:",
      "▁C_5_1 400_:",
      "▁I _6_3",
      "▁I_5_1 100_:",
      "▁K _2_2",
      "_3_8 00_f",
      "_2_4 00_:",
      "▁A_5_1 000_:",
      "▁C _2_0_F",
      "▁E _7_0_p",
      "▁K_5_1 100_:",
      "▁F _6_200_:",
      "▁H_5_1 100_:",
      "▁G_5_1 100_:",
      "▁B_5_1 400_:",
      "▁I_5_1 00_f",
      "▁F_5_1 100_:",
      "▁H_5_1 00_f",
      "▁J_5_1 00_f",
      "▁L_5_1 100_:",
      "▁B_6_1 00_F",
      "▁A _8_0_f",
      "▁F_5_1 00_f",
      "▁G_5_1 00_f",
      "▁A_6_1 00_F",
      "▁K_5_1 00_f",
      "▁J _2_0_p",
      "▁L_5_1 00_F",
      "▁C_6_1 00_F",
      "_6_6 00_p",
      "▁K_5_1 00_F",
      "▁L _5_900_:",
      "▁L_4_1 000_:",
      "▁A _6_900_:",
      "▁L_5_1 00_f",
      "▁K _2",
      "▁B _6_600_:",
      "▁H_4_1 200_:",
      "▁K _5_900_:",
      "▁E_5_1 100_:",
      "▁K _7_0_P",
      "▁K _5_800_:",
      "▁E_5_1 00_f",
      "▁A_6_1 100_:",
      "▁A_6_1 00_f",
      "▁J_5_1 00_F",
      "▁A _6_600_:",
      "▁D_5_1 00_f",
      "▁I _3_100_:",
      "▁K _6_100_:",
      "▁H _3_3",
      "_4_9 00_p",
      "▁B _8_0_F",
      "▁E_6_1 400_:",
      "▁L _5_800_:",
      "▁C _6_600_:",
      "▁I_5_1 00_F",
      "▁D_5_1 100_:",
      "▁C_5_1 00_f",
      "▁L _5_600_:",
      "▁A _6_800_:",
      "▁I _5_900_:",
      "▁D_6_1 00_F",
      "▁J _5_900_:",
      "▁D _6_600_:",
      "▁B_6_1 00_f",
      "▁B_5_1 00_f",
      "▁J _5_800_:",
      "▁B _6_900_:",
      "▁I _5_800_:",
      "▁A_5_1 400_:",
      "▁H _5_900_:",
      "▁C_5_1 100_:",
      "▁H_5_1 00_F",
      "▁D _6_4",
      "▁K_4_1 000_:",
      "▁K _5_600_:",
      "▁C _6_900_:",
      "▁A _6_700_:",
      "▁B _6_800_:",
      "_8 00_f",
      "_3_4 800_:",
      "▁C_6_1 00_f",
      "▁G _5_900_:",
      "▁A_5_1 00_f",
      "▁L _5_700_:",
      "▁G_5_1 00_F",
      "▁B_5_1 100_:",
      "▁E_6_1 00_F",
      "▁H _5_800_:",
      "▁E _6_600_:",
      "▁G_4_1 200_:",
      "▁C _4_200_:",
      "▁B_6_1 100_:",
      "▁B _6_700_:",
      "▁I_6_1 000_:",
      "_3_7 00_P",
      "▁C _6_800_:",
      "▁K _7",
      "▁L_4_1 00_f",
      "▁K _5_700_:",
      "▁F_5_1 00_F",
      "▁I _5_600_:",
      "▁D _8_0_:",
      "▁J _5_600_:",
      "▁F _5_900_:",
      "▁H _5_600_:",
      "▁L_4_1 400_:",
      "▁G _5_800_:",
      "▁G _3_3",
      "▁C _6_700_:",
      "▁G _6_200_:",
      "▁C_6_1 100_:",
      "▁J _5_700_:",
      "▁J _6_3",
      "▁D _6_900_:",
      "▁D_6_1 00_f",
      "_3_9 00_P",
      "▁G _5_600_:",
      "▁B _4_200_:",
      "▁J_4_1 000_:",
      "_4_8 00_p",
      "▁I_4_1 000_:",
      "▁E_5_1 00_F",
      "▁F _5_800_:",
      "▁F_6_1 400_:",
      "▁K_4_1 00_f",
      "▁F_6_1 00_F",
      "▁D _6_800_:",
      "▁F _6_600_:",
      "_8 00_F",
      "_5_4 200_:",
      "▁B _5_300_:",
      "▁A_5_1 100_:",
      "▁I _5_700_:",
      "▁I_6_1 200_:",
      "_1_0_ f",
      "▁D _6_700_:",
      "_4_4 100_:",
      "▁C _5_300_:",
      "▁J _2_2",
      "▁A _5_300_:",
      "▁F _5_600_:",
      "▁D_5_1 00_F",
      "▁E _5_900_:",
      "▁D _5_900_:",
      "▁E _6_4",
      "▁K_4_1 400_:",
      "▁E _6_900_:",
      "▁L _4_300_:",
      "▁B _5_900_:",
      "▁J_6_1 000_:",
      "▁E_6_1 00_f",
      "▁D _5_300_:",
      "_4_7 00_p",
      "▁G _7_2",
      "▁K _4_300_:",
      "▁C _5_900_:",
      "▁H _3_100_:",
      "▁F _5_300_:",
      "▁E _6_800_:",
      "▁D_6_1 100_:",
      "▁E _5_800_:",
      "▁E _5_300_:",
      "_6_7 00_p",
      "▁C_5_1 00_F",
      "▁I _2_0_p",
      "_3_8 00_P",
      "▁L_4_1 100_:",
      "▁H _5_300_:",
      "▁A _5_900_:",
      "▁E _6_700_:",
      "▁D _5_800_:",
      "▁H _6_200_:",
      "▁E _2_0_P",
      "▁E _5_600_:",
      "▁G _5_300_:",
      "▁H _5_700_:",
      "▁D _5_600_:",
      "▁H_4_1 000_:",
      "▁B_5_1 00_F",
      "▁J_4_1 00_f",
      "▁F_4_1 200_:",
      "_5_5 200_:",
      "▁J _2",
      "_3_7 00_F",
      "▁L _4_900_:",
      "▁J _4_300_:",
      "▁B _5_800_:",
      "▁G _5_700_:",
      "▁E_6_1 100_:",
      "▁C _5_600_:",
      "▁I _5_300_:",
      "▁C _2_0_f",
      "▁C _5_800_:",
      "▁G _6_600_:",
      "▁G_6_1 00_F",
      "▁K _4_900_:",
      "▁F _6_800_:",
      "▁F _6_900_:",
      "▁I_4_1 00_f",
      "▁B _5_600_:",
      "▁I _4_300_:",
      "▁A_5_1 00_F",
      "▁L _6_100_:",
      "▁F_6_1 00_f",
      "▁G_4_1 000_:",
      "▁J _5_300_:",
      "▁K _7_1",
      "▁K_4_1 100_:",
      "▁F _6_700_:",
      "▁G _3_100_:",
      "▁J_6_1 200_:",
      "▁J_4_1 400_:",
      "▁F _3_3",
      "▁F _5_700_:",
      "▁L_4_1 00_F",
      "_5_4 300_:",
      "_9 00_f",
      "▁A _5_600_:",
      "▁F _6_4",
      "▁B _8",
      "_3_9 00_F",
      "▁F _7_0_p",
      "▁E _2_1",
      "▁A _4_200_:",
      "▁K _5_300_:",
      "▁J _4_900_:",
      "▁A _5_800_:",
      "▁A _5_400_:",
      "▁L _4_600_:",
      "▁B _5_400_:",
      "▁D _5_400_:",
      "▁H _6_600_:",
      "▁C _8_0_F",
      "▁H_6_1 00_F",
      "_3_8 00_F",
      "▁C _5_400_:",
      "_6_9 00_p",
      "▁I _4_900_:",
      "▁I_4_1 400_:",
      "_5_5 000_:",
      "_6_8 00_p",
      "▁F_4_1 000_:",
      "▁L _4_400_:",
      "▁H _4_300_:",
      "▁G_6_1 400_:",
      "▁F _5_400_:",
      "▁K _4_600_:",
      "▁K_4_1 00_F",
      "▁E_4_1 200_:",
      "▁F_6_1 100_:",
      "▁F_5_1 00_P",
      "▁E _5_400_:",
      "▁A _2_0_:",
      "▁L_5_1 300_:",
      "▁E _5_700_:",
      "▁I _2_2",
      "▁L _5_300_:",
      "▁D_5_1 00_P",
      "▁H_5_1 00_P",
      "▁H _5_400_:",
      "▁C_5_1 00_P",
      "▁L _3_200_:",
      "▁G_5_1 00_P",
      "▁E_5_1 00_P",
      "▁G _6_800_:",
      "▁K_5_1 300_:",
      "▁B_5_1 00_P",
      "▁K _4_400_:",
      "▁G _5_400_:",
      "▁I _5_400_:",
      "▁L _4_800_:",
      "▁G _4_300_:",
      "▁J _5_400_:",
      "▁H_4_1 00_f",
      "▁K _5_400_:",
      "▁I_5_1 00_P",
      "▁A _6_300_:",
      "▁E _3_3",
      "▁J_4_1 100_:",
      "▁A_6_1 300_:",
      "▁J_5_1 300_:",
      "▁A_5_1 00_P",
      "▁K_6_1 000_:",
      "▁L _4_4",
      "_4_7 200_:",
      "▁B _6_500_:",
      "▁H _4_900_:",
      "▁G_6_1 00_f",
      "▁E_4_1 000_:",
      "▁G _6_700_:",
      "▁J_5_1 00_P",
      "▁A _6_500_:",
      "▁L _7",
      "▁D _5_700_:",
      "▁I _6_200_:",
      "▁G _6_900_:",
      "_6_5 00_p",
      "▁L _5_500_:",
      "▁I _2",
      "▁L _5_400_:",
      "_5_5 500_:",
      "▁J _4_600_:",
      "▁L _7_0_P",
      "▁I_5_1 300_:",
      "▁I_4_1 100_:",
      "▁K _4_800_:",
      "▁L_4_1 00_P",
      "▁K _5_500_:",
      "▁B _8_0_f",
      "▁C _6_500_:",
      "▁D_4_1 200_:",
      "▁J _4_400_:",
      "▁K_5_1 00_P",
      "▁A _6_400_:",
      "▁H _5_500_:",
      "▁K _4_4",
      "▁F _3_100_:",
      "▁G_4_1 00_f",
      "▁C _5_700_:",
      "▁I _5_500_:",
      "▁J_4_1 00_F",
      "▁I _4_400_:",
      "1 300_:",
      "▁B_6_1 300_:",
      "▁G _4_900_:",
      "▁J _5_500_:",
      "▁I _4_600_:",
      "▁L_5_1 00_P",
      "▁B _6_300_:",
      "▁K_4_1 00_P",
      "▁H_6_1 400_:",
      "▁H _6_800_:",
      "▁G _5_500_:",
      "▁J _4_4",
      "▁H_4_1 400_:",
      "_9 00_F",
      "▁K _6_3",
      "▁A_6_1 00_P",
      "▁H _6_700_:",
      "▁H _7_2",
      "▁C_6_1 300_:",
      "▁B _6_400_:",
      "▁H_5_1 300_:",
      "▁A_7_1 00_:",
      "▁F _4_300_:",
      "▁F _5_500_:",
      "_8 00_P",
      "▁B _5_700_:",
      "▁A _5_700_:",
      "▁D _6_500_:",
      "▁I _4_4",
      "▁J _4_800_:",
      "_3_5 800_:",
      "▁H_6_1 00_f",
      "▁H _6_900_:",
      "▁I_4_1 00_F",
      "▁I _4_800_:",
      "▁C _6_300_:",
      "_8_0_ p",
      "▁D _3_3",
      "▁L _4_700_:",
      "▁D_4_1 000_:",
      "▁G_5_1 300_:",
      "▁E _3_100_:",
      "▁G_6_1 100_:",
      "▁E _8_0_:",
      "▁I _6_600_:",
      "▁H _5_2900_:",
      "▁F _4_900_:",
      "▁E _5_500_:",
      "_7 00_f",
      "▁I _5_2900_:",
      "▁I_6_1 00_F",
      "▁L _1_0_:",
      "▁G_4_1 400_:",
      "_4 00_F",
      "▁C _6_400_:",
      "▁D _5_500_:",
      "▁B_6_1 00_P",
      "▁G _6_4",
      "▁E _6_500_:",
      "▁G _5_2900_:",
      "▁K _3_200_:",
      "▁H _4_400_:",
      "▁J _6_200_:",
      "▁J _5_2900_:",
      "▁H_4_1 100_:",
      "▁K _4_700_:",
      "▁L _2_3",
      "▁C _5_500_:",
      "▁H _5_2400_:",
      "▁J_4_1 00_P",
      "_6 00_f",
      "▁B _2_0_F",
      "▁I _5_2400_:",
      "▁F_5_1 300_:",
      "▁E _4_900_:",
      "▁G _5_2400_:",
      "▁G _4_400_:",
      "▁D_6_1 300_:",
      "▁F_4_1 00_f",
      "_4 00_f",
      "▁C_6_1 00_P",
      "▁E _4_300_:",
      "▁K_5_1 600_:",
      "▁K_6_1 200_:",
      "▁J _5_2400_:",
      "▁L_6_1 000_:",
      "▁I_5_1 600_:",
      "_7_3 00_P",
      "▁J_5_1 600_:",
      "▁L_5_1 600_:",
      "▁H _4_800_:",
      "▁D _6_300_:",
      "▁H _4_4",
      "▁B _5_500_:",
      "▁J _4_700_:",
      "▁F _5_2400_:",
      "▁F _6_500_:",
      "▁I_4_1 00_P",
      "▁K _5_2400_:",
      "▁K _5_2900_:",
      "▁C_4_1 200_:",
      "▁F _5_2900_:",
      "▁D _6_400_:",
      "▁G_4_1 100_:",
      "▁H_6_1 100_:",
      "▁H_5_1 600_:",
      "▁A _5_500_:",
      "▁A_6_1 600_:",
      "▁D _4_900_:",
      "▁G _4_800_:",
      "▁G_5_1 600_:",
      "▁I _4_700_:",
      "▁I _6_800_:",
      "▁H _4_600_:",
      "4 400_:",
      "▁J _6_600_:",
      "▁E_6_1 300_:",
      "▁H_4_1 00_F",
      "▁F_5_1 600_:",
      "▁J_6_1 00_F",
      "▁D _2_0_P",
      "▁E_5_1 300_:",
      "▁L _4_500_:",
      "▁F_4_1 400_:",
      "▁J _5_200_f",
      "▁D_6_1 00_P",
      "▁K _5_200_f",
      "▁I _5_200_f",
      "▁L _5_2400_:",
      "▁L _3_4",
      "▁H _2_0_p",
      "▁A_6_2 00_f",
      "▁G _4_4",
      "▁I _6_700_:",
      "▁D _5_2400_:",
      "_5_4 500_:",
      "▁L _5_200_f",
      "▁C_4_1 000_:",
      "▁E_4_1 00_f",
      "▁E _5_2400_:",
      "▁H _5_200_f",
      "▁D _3_100_:",
      "▁G _4_600_:",
      "▁K _4_500_:",
      "▁D _4_300_:",
      "▁L _5_2900_:",
      "▁E _5_2900_:",
      "▁F _5_200_f",
      "▁E _6_300_:",
      "▁H _6_4",
      "▁E _6_400_:",
      "▁D_5_1 300_:",
      "▁B_6_1 600_:",
      "▁D_5_1 600_:",
      "▁E_5_1 600_:",
      "▁J _3_200_:",
      "▁F _4_400_:",
      "▁A_6_2 400_:",
      "▁A_6_2 00_F",
      "▁G _5_200_f",
      "▁H _4_700_:",
      "▁C _8",
      "▁D _2_1",
      "▁K _5_200_F",
      "▁G_4_1 00_F",
      "▁I _6_900_:",
      "▁L _5_200_F",
      "▁B_4_1 200_:",
      "▁J _5_200_F",
      "▁L _7_1",
      "▁B_6_2 00_f",
      "▁G _6_500_:",
      "▁E _5_200_f",
      "▁D _5_200_f",
      "_9 00_P",
      "▁E_6_1 00_P",
      "▁I_6_1 00_f",
      "▁I _5_200_F",
      "▁H _2_2",
      "▁G _4_700_:",
      "▁H_4_1 00_P",
      "▁B_6_2 00_F",
      "▁C _5_2400_:",
      "▁J _6_800_:",
      "▁C_6_1 600_:",
      "▁C_6_2 00_F",
      "▁C_6_2 00_f",
      "▁C _3_3",
      "_5_5 400_:",
      "▁F _4_800_:",
      "▁A_6_2 900_:",
      "▁B _5_2400_:",
      "▁H _5_200_F",
      "▁C _5_200_f",
      "▁J _4_500_:",
      "▁C_5_1 600_:",
      "▁F _6_400_:",
      "▁B _5_200_f",
      "▁C _4_900_:",
      "_5 00_f",
      "▁E _4_400_:",
      "▁F_4_1 100_:",
      "▁F_6_1 300_:",
      "▁F _4_4",
      "▁D _5_2900_:",
      "▁D_4_1 00_f",
      "▁H _2",
      "_5_5 100_:",
      "▁B_4_1 000_:",
      "▁D_6_2 00_F",
      "▁F _5_200_F",
      "▁G _5_200_F",
      "▁E_4_1 400_:",
      "▁B _2_0_f",
      "▁A _6_5",
      "▁C_5_1 300_:",
      "▁J _6_700_:",
      "▁B_5_1 600_:",
      "▁F _4_600_:",
      "▁E _4_800_:",
      "▁A_7_1 000_:",
      "▁C _8_0_f",
      "▁F _4_700_:",
      "▁F _6_300_:",
      "▁H _6_500_:",
      "_4_5 100_:",
      "▁G_4_1 00_P",
      "▁D_6_2 00_f",
      "▁A _5_200_f",
      "▁L_4_2 00_f",
      "▁I_6_1 400_:",
      "▁K _6_200_:",
      "▁L _6_3",
      "▁I _4_500_:",
      "▁B_6_2 400_:",
      "▁B_5_1 300_:",
      "▁L_6_1 200_:",
      "▁K _2_3",
      "▁A _5_2400_:",
      "_6_7 200_:",
      "▁J _6_900_:",
      "_6 00_F",
      "_4_5 200_:",
      "_7 00_F",
      "▁D _8_0_F",
      "▁K _3_4",
      "▁E _5_200_F",
      "▁C _4_300_:",
      "▁K_4_2 00_f",
      "▁D_6_1 600_:",
      "▁D _5_200_F",
      "▁F_6_1 00_P",
      "_5_4 600_:",
      "▁E_6_2 00_F",
      "▁F_4_1 00_F",
      "▁I _3_200_:",
      "_5 00_F",
      "▁C_6_2 400_:",
      "▁B _4_900_:",
      "▁A_5_1 600_:",
      "▁J_6_1 00_f",
      "▁I_6_1 100_:",
      "▁E _4_700_:",
      "▁L_4_2 400_:",
      "▁E _4_4",
      "▁E_4_1 100_:",
      "▁E_6_2 00_f",
      "▁D_4_1 400_:",
      "▁C _3_100_:",
      "▁C _5_200_F",
      "▁E _4_600_:",
      "▁K_6_1 00_F",
      "▁D _4_800_:",
      "▁B _4_300_:",
      "▁D _4_400_:",
      "▁B _5_200_F",
      "▁K _6_600_:",
      "▁B _6_5",
      "▁J_5_1 800_:",
      "▁A_5_1 300_:",
      "▁A _8_0_P",
      "▁B_7_1 00_:",
      "▁L_4_1 600_:",
      "▁E_6_1 600_:",
      "▁F_6_2 00_F",
      "▁K_5_1 800_:",
      "▁F _8_0_:",
      "▁G _2_0_p",
      "▁G _6_400_:",
      "▁B _3_3",
      "▁G _7_0_p",
      "▁I_5_1 800_:",
      "▁D _4_700_:",
      "▁K_4_2 400_:",
      "▁L_5_1 800_:",
      "_7 00_P",
      "▁A _5_200_F",
      "▁A_4_1 000_:",
      "▁F_4_1 00_P",
      "▁J_4_2 00_f",
      "▁E_4_1 00_F",
      "▁L_4_2 00_F",
      "▁A_6_1 800_:",
      "▁C_4_1 00_f",
      "▁G_6_1 300_:",
      "_4_6 400_:",
      "▁C _6_5",
      "▁C _5_2900_:",
      "▁G _6_300_:",
      "▁H_5_1 800_:",
      "▁K _6_800_:",
      "▁K_4_1 600_:",
      "▁D_4_1 100_:",
      "▁F_6_2 00_f",
      "▁D _4_4",
      "▁L_4_1 300_:",
      "▁J_6_1 400_:",
      "▁L _3_300_:",
      "▁B_6_2 900_:",
      "▁A_4_1 200_:",
      "▁K _6_700_:",
      "_6 00_P",
      "▁K_4_2 00_F",
      "▁I_4_2 00_f",
      "▁G _2_2",
      "▁G_5_1 800_:",
      "▁B_4_1 00_f",
      "▁B _5_2900_:",
      "▁G_6_1 00_P",
      "▁C_4_1 400_:",
      "▁H _6_400_:",
      "▁H _4_500_:",
      "▁J_6_1 100_:",
      "▁C _4_800_:",
      "▁K_4_1 300_:",
      "▁C _4_400_:",
      "▁A _4_300_:",
      "▁D _4_600_:",
      "▁B_6_1 800_:",
      "▁D_6_2 400_:",
      "▁A _8_1",
      "▁I _6_500_:",
      "▁J _3_4",
      "▁G_6_2 00_F",
      "▁L_3_1 000_:",
      "_3_5 00_p",
      "▁I _7_2",
      "▁D_4_1 00_F",
      "▁C_6_2 900_:",
      "▁F _5_4",
      "▁F_5_1 800_:",
      "▁A _4_900_:",
      "▁I _6_4",
      "▁L _6_200_:",
      "▁G _2",
      "▁H _3_200_:",
      "▁E_4_1 00_P",
      "_3_6 00_p",
      "▁F_6_1 600_:",
      "▁C _4_700_:",
      "▁G _4_500_:",
      "▁H_6_1 300_:",
      "▁D _5_4",
      "▁E _5_4",
      "▁J_4_2 400_:",
      "▁K _5_2000_:",
      "▁J_4_1 600_:",
      "0 000_:",
      "▁C_6_1 800_:",
      "▁A_7_1 200_:",
      "▁B _5_4",
      "▁G _5_4",
      "▁I _5_2000_:",
      "▁J _5_2000_:",
      "▁L _5_2000_:",
      "▁C _5_4",
      "▁H _6_300_:",
      "▁B _3_100_:",
      "▁H _5_4",
      "▁J _2_3",
      "▁B _4_700_:",
      "▁E_5_1 800_:",
      "▁J_4_2 00_F",
      "▁H_4_2 00_f",
      "▁B_4_1 400_:",
      "▁G_6_2 00_f",
      "▁I_4_1 600_:",
      "▁K _6_900_:",
      "▁B _4_400_:",
      "▁A _5_4",
      "▁A _7_3",
      "_5_9 600_:",
      "▁C _4_4",
      "▁J _5_200_P",
      "▁I_4_2 400_:",
      "▁I _5_200_P",
      "▁E_6_2 400_:",
      "▁H_6_2 00_F",
      "▁H_6_1 00_P",
      "▁J_4_1 300_:",
      "▁J _6_500_:",
      "▁L_6_1 00_F",
      "_4 00_P",
      "▁B _4_800_:",
      "▁H _5_200_P",
      "▁I_4_2 00_F",
      "▁A_6_2 000_:",
      "▁B_7_1 000_:",
      "▁D _6_5",
      "▁F _5_200_P",
      "▁L_3_1 200_:",
      "▁C_7_1 00_:",
      "▁I _5_4",
      "▁K_6_1 00_f",
      "▁K _5_200_P",
      "▁L _6_800_:",
      "▁L _6_600_:",
      "▁G _5_200_P",
      "▁L _5_200_P",
      "▁G_4_2 00_f",
      "▁A_6_2 00_P",
      "▁C_4_1 100_:",
      "▁I_4_1 300_:",
      "▁H _5_2000_:",
      "▁K _3_300_:",
      "▁J _5_4",
      "▁A_4_1 00_f",
      "▁K _5_4",
      "▁E _5_200_P",
      "▁D _8",
      "▁D_5_1 800_:",
      "▁D _5_200_P",
      "▁D_4_1 00_P",
      "▁C _4_600_:",
      "▁G _3_200_:",
      "▁I _3_4",
      "▁F _4_500_:",
      "▁L _3_900_:",
      "▁G _5_2000_:",
      "▁K_3_1 000_:",
      "▁G_5_1 500_:",
      "▁F_5_1 500_:",
      "▁B_6_2 00_P",
      "▁C _5_200_P",
      "▁I _6_400_:",
      "▁B _5_200_P",
      "▁H_6_2 00_f",
      "▁H _7_0_p",
      "▁E _8_0_F",
      "▁I_5_1 500_:",
      "▁A _5_2900_:",
      "▁C_4_1 00_F",
      "▁D_5_1 500_:",
      "▁F _5_2000_:",
      "▁E_5_1 500_:",
      "▁H_5_1 500_:",
      "▁D_6_1 800_:",
      "▁L _6_700_:",
      "▁L _5_4",
      "▁K_5_1 500_:",
      "▁L_3_1 00_f",
      "▁C_6_2 00_P",
      "▁G_6_1 600_:",
      "▁H_4_1 600_:",
      "▁A _3_3",
      "▁H_4_2 00_F",
      "▁B _4_4",
      "▁J_5_1 500_:",
      "▁L_4_2 00_P",
      "▁A _5_200_P",
      "▁J _6_4",
      "▁B_6_2 000_:",
      "▁A _4_800_:",
      "▁B_4_1 100_:",
      "▁C_5_1 800_:",
      "▁B _4_600_:",
      "▁B_4_1 00_F",
      "▁C _2_1",
      "▁A_7_2 00_:",
      "▁E _6_5",
      "▁L_5_1 500_:",
      "▁C_5_1 500_:",
      "▁K_4_2 00_P",
      "▁F_4_2 00_f",
      "_5 00_P",
      "▁G_4_2 00_F",
      "▁A_6_1 500_:",
      "▁B_5_1 800_:",
      "▁E _4_500_:",
      "▁K_6_1 100_:",
      "▁H_4_1 300_:",
      "▁B_5_1 500_:",
      "▁K_3_1 200_:",
      "▁C_6_2 000_:",
      "▁H_4_2 400_:",
      "▁C _2_0_P",
      "▁F _2_0_p",
      "▁E _5_2000_:",
      "▁A _4_400_:",
      "▁F_6_2 400_:",
      "▁I _2_3",
      "▁D _5_2000_:",
      "▁A_7_1 00_F",
      "▁L_4_2 900_:",
      "▁D_6_2 00_P",
      "▁A _3_100_:",
      "_2_4 00_F",
      "▁I_6_2 00_F",
      "▁A _4_700_:",
      "▁G_4_1 600_:",
      "▁J _3_300_:",
      "▁A_5_1 800_:",
      "▁D_6_2 900_:",
      "▁K _3_900_:",
      "▁K _1_0_:",
      "▁I _6_300_:",
      "▁A _2_0_F",
      "▁F _3_200_:",
      "▁A_7 _600_:",
      "▁A_7 _800_:",
      "▁L _3_800_:",
      "▁L _3_400_:",
      "▁B_6_1 500_:",
      "▁C_7_1 000_:",
      "▁E_6_1 800_:",
      "▁K_6_1 400_:",
      "▁D _8_0_f",
      "▁G_4_1 300_:",
      "▁A_5_1 500_:",
      "▁J _6_400_:",
      "▁J_3_1 000_:",
      "▁G_4_2 400_:",
      "▁C_4_1 00_P",
      "_3_7 00_p",
      "▁L _6_900_:",
      "▁H_6_1 600_:",
      "▁E_4_2 00_f",
      "▁L_4_1 800_:",
      "▁L _4_5",
      "▁D _4_500_:",
      "▁A_4_1 400_:",
      "▁I_6_1 00_P",
      "_3_5 500_:",
      "▁A_7 _700_:",
      "▁K_3_1 00_f",
      "▁L_4_1 500_:",
      "▁J_4_2 00_P",
      "▁K _6_500_:",
      "▁F_4_2 00_F",
      "▁L_6_1 00_f",
      "▁L_3_1 400_:",
      "_4_6 000_:",
      "▁E_6_2 00_P",
      "▁K_4_1 800_:",
      "▁I_6_1 300_:",
      "▁B_4_1 00_P",
      "▁J _7_2",
      "▁H _3_4",
      "▁C_6_1 500_:",
      "_2_6 00_f",
      "▁F_5_1 900_:",
      "▁C _5_2000_:",
      "▁G _8_0_:",
      "▁K _4_5",
      "▁G_5_1 900_:",
      "▁K_5_1 700_:",
      "▁I_6_2 00_f",
      "▁L _3_700_:",
      "▁L_5_1 700_:",
      "▁B _5_2000_:",
      "▁E _3_200_:",
      "▁D_6_2 000_:",
      "▁F_4_1 300_:",
      "▁I_4_2 00_P",
      "▁F _6_5",
      "▁A_4_1 00_F",
      "▁K_4_1 500_:",
      "▁A _4_4",
      "▁A_6_1 700_:",
      "▁D_5_1 900_:",
      "▁A _4_600_:",
      "▁H_5_1 900_:",
      "▁J_6_2 00_F",
      "▁C_5_1 900_:",
      "▁E_5_1 900_:",
      "▁I_5_1 900_:",
      "▁F_4_1 600_:",
      "▁E_4_2 00_F",
      "▁I _3_300_:",
      "▁J_3_1 200_:",
      "▁D_4_2 00_f",
      "▁B _8_0_P",
      "▁J_5_1 700_:",
      "▁K_4_2 900_:",
      "▁A_4_1 100_:",
      "▁J _6_300_:",
      "▁J_5_1 900_:",
      "▁I_5_1 700_:",
      "▁K _3_400_:",
      "▁B_5_1 900_:",
      "▁J_4_1 800_:",
      "▁J _4_5",
      "▁J _3_900_:",
      "▁A_5_1 900_:",
      "_4_9 600_:",
      "▁F_6_2 00_P",
      "▁L_3_1 00_F",
      "▁F_4_2 400_:",
      "▁I _4_5",
      "▁E_6_2 000_:",
      "▁B_6_1 700_:",
      "▁K_5_1 900_:",
      "▁F_6_1 800_:",
      "▁H _5_2100_:",
      "▁I _5_2100_:",
      "▁B_7_1 200_:",
      "▁D_6_1 500_:",
      "▁K _3_800_:",
      "▁J_4_1 500_:",
      "▁J _5_2100_:",
      "▁J_6_1 00_P",
      "▁G _3_4",
      "▁E_4_1 300_:",
      "▁L _3_600_:",
      "▁C_6_1 700_:",
      "_2_6 00_F",
      "▁L_4_1 900_:",
      "▁E_6_2 900_:",
      "▁L _1",
      "▁I_3_1 000_:",
      "▁I_4_1 800_:",
      "▁G _5_2100_:",
      "▁B _8_1",
      "▁H _4_5",
      "▁A _5_2000_:",
      "▁H_4_2 00_P",
      "▁K _5_2100_:",
      "_5_5 300_:",
      "▁J_3_1 00_f",
      "▁B _5_300_f",
      "_2_4 00_f",
      "▁K _3_700_:",
      "▁D_4_2 00_F",
      "▁F _5_300_f",
      "▁C _4_500_:",
      "▁L_6_1 100_:",
      "▁F _5_2100_:",
      "▁K_4_1 900_:",
      "▁J_6_2 00_f",
      "▁D _3_200_:",
      "▁G _4_5",
      "▁J _5_300_f",
      "▁J_6_1 300_:",
      "▁A_4_1 00_P",
      "▁F _2",
      "_3_9 00_p",
      "▁D _5_300_f",
      "▁H_5_1 700_:",
      "▁C _5_300_f",
      "▁G_6_2 400_:",
      "▁I _5_300_f",
      "▁G_5_1 700_:",
      "▁L_5_1 900_:",
      "▁E _5_300_f",
      "▁K_3_1 400_:",
      "▁D_4_1 300_:",
      "▁A _5_300_f",
      "▁E_4_1 600_:",
      "▁H _5_300_f",
      "▁I_4_1 500_:",
      "▁A_7_1 00_f",
      "▁A_7 _900_:",
      "▁E_6_1 500_:",
      "▁L _5_300_f",
      "▁G _5_300_f",
      "▁L_3_1 100_:",
      "▁J_4_1 900_:",
      "▁A _6_300_f",
      "▁K _5_300_f",
      "▁K _6_400_:",
      "▁L_3_1 00_P",
      "▁L _4_300_f",
      "_3_8 00_p",
      "▁D_7_1 00_:",
      "▁E_4_2 400_:",
      "▁B_7 _800_:",
      "▁G_4_2 00_P",
      "▁B _4_500_:",
      "▁L _5_2100_:",
      "_5_6 400_:",
      "▁L _6_500_:",
      "▁K _4_300_f",
      "▁K _6_4",
      "▁J _3_400_:",
      "▁I_3_1 200_:",
      "▁C_4_2 00_f",
      "_3_7 200_:",
      "▁F _8_0_F",
      "▁A_6_1 900_:",
      "▁I_6_1 600_:",
      "▁B _7_3",
      "▁A _6_300_F",
      "▁L_2_1 00_:",
      "▁E _8",
      "▁J _3_800_:",
      "▁L _5_300_F",
      "▁B_7_2 00_:",
      "▁J _5_300_F",
      "▁G_6_2 00_P",
      "▁E _5_2100_:",
      "▁K_3_1 00_F",
      "▁I _5_300_F",
      "▁A_6_2 100_:",
      "▁L_4_2 000_:",
      "_2_6 00_P",
      "▁B _6_300_f",
      "▁B_4_2 00_f",
      "▁F _4_5",
      "▁H _3_300_:",
      "▁J_4_2 900_:",
      "▁F_5_1 700_:",
      "▁I _3_900_:",
      "▁K _5_300_F",
      "▁L_6_1 400_:",
      "▁I_4_1 900_:",
      "▁H_4_1 800_:",
      "▁D_6_1 700_:",
      "▁B _6_300_F",
      "▁K _3_600_:",
      "▁C _6_300_f",
      "▁C _6_300_F",
      "▁F _5_300_F",
      "▁H _5_300_F",
      "▁I_3_1 00_f",
      "▁D _5_2100_:",
      "▁K_6_2 00_F",
      "▁L _1_0_F",
      "▁H_6_2 400_:",
      "▁C_4_1 300_:",
      "▁C_4_2 00_F",
      "▁F_6_2 000_:",
      "▁K_4_2 000_:",
      "▁B_7 _700_:",
      "▁B_4_2 00_F",
      "▁F_6_1 500_:",
      "▁G _6_5"
    ]
  }
}